{
  "version": "1.0",
  "truncation": null,
  "padding": null,
  "added_tokens": [
    {
      "id": 0,
      "content": "[PAD]",
      "single_word": false,
      "lstrip": false,
      "rstrip": false,
      "normalized": false,
      "special": true
    },
    {
      "id": 1,
      "content": "[UNK]",
      "single_word": false,
      "lstrip": false,
      "rstrip": false,
      "normalized": false,
      "special": true
    },
    {
      "id": 2,
      "content": "[BOS]",
      "single_word": false,
      "lstrip": false,
      "rstrip": false,
      "normalized": false,
      "special": true
    },
    {
      "id": 3,
      "content": "[EOS]",
      "single_word": false,
      "lstrip": false,
      "rstrip": false,
      "normalized": false,
      "special": true
    },
    {
      "id": 4,
      "content": "[RESERVED_0]",
      "single_word": false,
      "lstrip": false,
      "rstrip": false,
      "normalized": false,
      "special": true
    },
    {
      "id": 5,
      "content": "[RESERVED_1]",
      "single_word": false,
      "lstrip": false,
      "rstrip": false,
      "normalized": false,
      "special": true
    },
    {
      "id": 6,
      "content": "[RESERVED_2]",
      "single_word": false,
      "lstrip": false,
      "rstrip": false,
      "normalized": false,
      "special": true
    },
    {
      "id": 7,
      "content": "[RESERVED_3]",
      "single_word": false,
      "lstrip": false,
      "rstrip": false,
      "normalized": false,
      "special": true
    },
    {
      "id": 8,
      "content": "[RESERVED_4]",
      "single_word": false,
      "lstrip": false,
      "rstrip": false,
      "normalized": false,
      "special": true
    },
    {
      "id": 9,
      "content": "[RESERVED_5]",
      "single_word": false,
      "lstrip": false,
      "rstrip": false,
      "normalized": false,
      "special": true
    },
    {
      "id": 10,
      "content": "[RESERVED_6]",
      "single_word": false,
      "lstrip": false,
      "rstrip": false,
      "normalized": false,
      "special": true
    },
    {
      "id": 11,
      "content": "[RESERVED_7]",
      "single_word": false,
      "lstrip": false,
      "rstrip": false,
      "normalized": false,
      "special": true
    },
    {
      "id": 12,
      "content": "[RESERVED_8]",
      "single_word": false,
      "lstrip": false,
      "rstrip": false,
      "normalized": false,
      "special": true
    },
    {
      "id": 13,
      "content": "[RESERVED_9]",
      "single_word": false,
      "lstrip": false,
      "rstrip": false,
      "normalized": false,
      "special": true
    },
    {
      "id": 14,
      "content": "[RESERVED_10]",
      "single_word": false,
      "lstrip": false,
      "rstrip": false,
      "normalized": false,
      "special": true
    },
    {
      "id": 15,
      "content": "[RESERVED_11]",
      "single_word": false,
      "lstrip": false,
      "rstrip": false,
      "normalized": false,
      "special": true
    },
    {
      "id": 16,
      "content": "[RESERVED_12]",
      "single_word": false,
      "lstrip": false,
      "rstrip": false,
      "normalized": false,
      "special": true
    },
    {
      "id": 17,
      "content": "[RESERVED_13]",
      "single_word": false,
      "lstrip": false,
      "rstrip": false,
      "normalized": false,
      "special": true
    },
    {
      "id": 18,
      "content": "[RESERVED_14]",
      "single_word": false,
      "lstrip": false,
      "rstrip": false,
      "normalized": false,
      "special": true
    },
    {
      "id": 19,
      "content": "[RESERVED_15]",
      "single_word": false,
      "lstrip": false,
      "rstrip": false,
      "normalized": false,
      "special": true
    },
    {
      "id": 20,
      "content": "[RESERVED_16]",
      "single_word": false,
      "lstrip": false,
      "rstrip": false,
      "normalized": false,
      "special": true
    },
    {
      "id": 21,
      "content": "[RESERVED_17]",
      "single_word": false,
      "lstrip": false,
      "rstrip": false,
      "normalized": false,
      "special": true
    },
    {
      "id": 22,
      "content": "[RESERVED_18]",
      "single_word": false,
      "lstrip": false,
      "rstrip": false,
      "normalized": false,
      "special": true
    },
    {
      "id": 23,
      "content": "[RESERVED_19]",
      "single_word": false,
      "lstrip": false,
      "rstrip": false,
      "normalized": false,
      "special": true
    },
    {
      "id": 24,
      "content": "[RESERVED_20]",
      "single_word": false,
      "lstrip": false,
      "rstrip": false,
      "normalized": false,
      "special": true
    },
    {
      "id": 25,
      "content": "[RESERVED_21]",
      "single_word": false,
      "lstrip": false,
      "rstrip": false,
      "normalized": false,
      "special": true
    },
    {
      "id": 26,
      "content": "[RESERVED_22]",
      "single_word": false,
      "lstrip": false,
      "rstrip": false,
      "normalized": false,
      "special": true
    },
    {
      "id": 27,
      "content": "[RESERVED_23]",
      "single_word": false,
      "lstrip": false,
      "rstrip": false,
      "normalized": false,
      "special": true
    },
    {
      "id": 28,
      "content": "[RESERVED_24]",
      "single_word": false,
      "lstrip": false,
      "rstrip": false,
      "normalized": false,
      "special": true
    },
    {
      "id": 29,
      "content": "[RESERVED_25]",
      "single_word": false,
      "lstrip": false,
      "rstrip": false,
      "normalized": false,
      "special": true
    },
    {
      "id": 30,
      "content": "[RESERVED_26]",
      "single_word": false,
      "lstrip": false,
      "rstrip": false,
      "normalized": false,
      "special": true
    },
    {
      "id": 31,
      "content": "[RESERVED_27]",
      "single_word": false,
      "lstrip": false,
      "rstrip": false,
      "normalized": false,
      "special": true
    },
    {
      "id": 32,
      "content": "[RESERVED_28]",
      "single_word": false,
      "lstrip": false,
      "rstrip": false,
      "normalized": false,
      "special": true
    },
    {
      "id": 33,
      "content": "[RESERVED_29]",
      "single_word": false,
      "lstrip": false,
      "rstrip": false,
      "normalized": false,
      "special": true
    },
    {
      "id": 34,
      "content": "[RESERVED_30]",
      "single_word": false,
      "lstrip": false,
      "rstrip": false,
      "normalized": false,
      "special": true
    },
    {
      "id": 35,
      "content": "[RESERVED_31]",
      "single_word": false,
      "lstrip": false,
      "rstrip": false,
      "normalized": false,
      "special": true
    },
    {
      "id": 36,
      "content": "[RESERVED_32]",
      "single_word": false,
      "lstrip": false,
      "rstrip": false,
      "normalized": false,
      "special": true
    },
    {
      "id": 37,
      "content": "[RESERVED_33]",
      "single_word": false,
      "lstrip": false,
      "rstrip": false,
      "normalized": false,
      "special": true
    },
    {
      "id": 38,
      "content": "[RESERVED_34]",
      "single_word": false,
      "lstrip": false,
      "rstrip": false,
      "normalized": false,
      "special": true
    },
    {
      "id": 39,
      "content": "[RESERVED_35]",
      "single_word": false,
      "lstrip": false,
      "rstrip": false,
      "normalized": false,
      "special": true
    },
    {
      "id": 40,
      "content": "[RESERVED_36]",
      "single_word": false,
      "lstrip": false,
      "rstrip": false,
      "normalized": false,
      "special": true
    },
    {
      "id": 41,
      "content": "[RESERVED_37]",
      "single_word": false,
      "lstrip": false,
      "rstrip": false,
      "normalized": false,
      "special": true
    },
    {
      "id": 42,
      "content": "[RESERVED_38]",
      "single_word": false,
      "lstrip": false,
      "rstrip": false,
      "normalized": false,
      "special": true
    },
    {
      "id": 43,
      "content": "[RESERVED_39]",
      "single_word": false,
      "lstrip": false,
      "rstrip": false,
      "normalized": false,
      "special": true
    },
    {
      "id": 44,
      "content": "[RESERVED_40]",
      "single_word": false,
      "lstrip": false,
      "rstrip": false,
      "normalized": false,
      "special": true
    },
    {
      "id": 45,
      "content": "[RESERVED_41]",
      "single_word": false,
      "lstrip": false,
      "rstrip": false,
      "normalized": false,
      "special": true
    },
    {
      "id": 46,
      "content": "[RESERVED_42]",
      "single_word": false,
      "lstrip": false,
      "rstrip": false,
      "normalized": false,
      "special": true
    },
    {
      "id": 47,
      "content": "[RESERVED_43]",
      "single_word": false,
      "lstrip": false,
      "rstrip": false,
      "normalized": false,
      "special": true
    },
    {
      "id": 48,
      "content": "[RESERVED_44]",
      "single_word": false,
      "lstrip": false,
      "rstrip": false,
      "normalized": false,
      "special": true
    },
    {
      "id": 49,
      "content": "[RESERVED_45]",
      "single_word": false,
      "lstrip": false,
      "rstrip": false,
      "normalized": false,
      "special": true
    },
    {
      "id": 50,
      "content": "[RESERVED_46]",
      "single_word": false,
      "lstrip": false,
      "rstrip": false,
      "normalized": false,
      "special": true
    },
    {
      "id": 51,
      "content": "[RESERVED_47]",
      "single_word": false,
      "lstrip": false,
      "rstrip": false,
      "normalized": false,
      "special": true
    },
    {
      "id": 52,
      "content": "[RESERVED_48]",
      "single_word": false,
      "lstrip": false,
      "rstrip": false,
      "normalized": false,
      "special": true
    },
    {
      "id": 53,
      "content": "[RESERVED_49]",
      "single_word": false,
      "lstrip": false,
      "rstrip": false,
      "normalized": false,
      "special": true
    },
    {
      "id": 54,
      "content": "[RESERVED_50]",
      "single_word": false,
      "lstrip": false,
      "rstrip": false,
      "normalized": false,
      "special": true
    },
    {
      "id": 55,
      "content": "[RESERVED_51]",
      "single_word": false,
      "lstrip": false,
      "rstrip": false,
      "normalized": false,
      "special": true
    },
    {
      "id": 56,
      "content": "[RESERVED_52]",
      "single_word": false,
      "lstrip": false,
      "rstrip": false,
      "normalized": false,
      "special": true
    },
    {
      "id": 57,
      "content": "[RESERVED_53]",
      "single_word": false,
      "lstrip": false,
      "rstrip": false,
      "normalized": false,
      "special": true
    },
    {
      "id": 58,
      "content": "[RESERVED_54]",
      "single_word": false,
      "lstrip": false,
      "rstrip": false,
      "normalized": false,
      "special": true
    },
    {
      "id": 59,
      "content": "[RESERVED_55]",
      "single_word": false,
      "lstrip": false,
      "rstrip": false,
      "normalized": false,
      "special": true
    },
    {
      "id": 60,
      "content": "[RESERVED_56]",
      "single_word": false,
      "lstrip": false,
      "rstrip": false,
      "normalized": false,
      "special": true
    },
    {
      "id": 61,
      "content": "[RESERVED_57]",
      "single_word": false,
      "lstrip": false,
      "rstrip": false,
      "normalized": false,
      "special": true
    },
    {
      "id": 62,
      "content": "[RESERVED_58]",
      "single_word": false,
      "lstrip": false,
      "rstrip": false,
      "normalized": false,
      "special": true
    },
    {
      "id": 63,
      "content": "[RESERVED_59]",
      "single_word": false,
      "lstrip": false,
      "rstrip": false,
      "normalized": false,
      "special": true
    },
    {
      "id": 64,
      "content": "[RESERVED_60]",
      "single_word": false,
      "lstrip": false,
      "rstrip": false,
      "normalized": false,
      "special": true
    },
    {
      "id": 65,
      "content": "[RESERVED_61]",
      "single_word": false,
      "lstrip": false,
      "rstrip": false,
      "normalized": false,
      "special": true
    },
    {
      "id": 66,
      "content": "[RESERVED_62]",
      "single_word": false,
      "lstrip": false,
      "rstrip": false,
      "normalized": false,
      "special": true
    },
    {
      "id": 67,
      "content": "[RESERVED_63]",
      "single_word": false,
      "lstrip": false,
      "rstrip": false,
      "normalized": false,
      "special": true
    },
    {
      "id": 68,
      "content": "[RESERVED_64]",
      "single_word": false,
      "lstrip": false,
      "rstrip": false,
      "normalized": false,
      "special": true
    },
    {
      "id": 69,
      "content": "[RESERVED_65]",
      "single_word": false,
      "lstrip": false,
      "rstrip": false,
      "normalized": false,
      "special": true
    },
    {
      "id": 70,
      "content": "[RESERVED_66]",
      "single_word": false,
      "lstrip": false,
      "rstrip": false,
      "normalized": false,
      "special": true
    },
    {
      "id": 71,
      "content": "[RESERVED_67]",
      "single_word": false,
      "lstrip": false,
      "rstrip": false,
      "normalized": false,
      "special": true
    },
    {
      "id": 72,
      "content": "[RESERVED_68]",
      "single_word": false,
      "lstrip": false,
      "rstrip": false,
      "normalized": false,
      "special": true
    },
    {
      "id": 73,
      "content": "[RESERVED_69]",
      "single_word": false,
      "lstrip": false,
      "rstrip": false,
      "normalized": false,
      "special": true
    },
    {
      "id": 74,
      "content": "[RESERVED_70]",
      "single_word": false,
      "lstrip": false,
      "rstrip": false,
      "normalized": false,
      "special": true
    },
    {
      "id": 75,
      "content": "[RESERVED_71]",
      "single_word": false,
      "lstrip": false,
      "rstrip": false,
      "normalized": false,
      "special": true
    },
    {
      "id": 76,
      "content": "[RESERVED_72]",
      "single_word": false,
      "lstrip": false,
      "rstrip": false,
      "normalized": false,
      "special": true
    },
    {
      "id": 77,
      "content": "[RESERVED_73]",
      "single_word": false,
      "lstrip": false,
      "rstrip": false,
      "normalized": false,
      "special": true
    },
    {
      "id": 78,
      "content": "[RESERVED_74]",
      "single_word": false,
      "lstrip": false,
      "rstrip": false,
      "normalized": false,
      "special": true
    },
    {
      "id": 79,
      "content": "[RESERVED_75]",
      "single_word": false,
      "lstrip": false,
      "rstrip": false,
      "normalized": false,
      "special": true
    },
    {
      "id": 80,
      "content": "[RESERVED_76]",
      "single_word": false,
      "lstrip": false,
      "rstrip": false,
      "normalized": false,
      "special": true
    },
    {
      "id": 81,
      "content": "[RESERVED_77]",
      "single_word": false,
      "lstrip": false,
      "rstrip": false,
      "normalized": false,
      "special": true
    },
    {
      "id": 82,
      "content": "[RESERVED_78]",
      "single_word": false,
      "lstrip": false,
      "rstrip": false,
      "normalized": false,
      "special": true
    },
    {
      "id": 83,
      "content": "[RESERVED_79]",
      "single_word": false,
      "lstrip": false,
      "rstrip": false,
      "normalized": false,
      "special": true
    },
    {
      "id": 84,
      "content": "[RESERVED_80]",
      "single_word": false,
      "lstrip": false,
      "rstrip": false,
      "normalized": false,
      "special": true
    },
    {
      "id": 85,
      "content": "[RESERVED_81]",
      "single_word": false,
      "lstrip": false,
      "rstrip": false,
      "normalized": false,
      "special": true
    },
    {
      "id": 86,
      "content": "[RESERVED_82]",
      "single_word": false,
      "lstrip": false,
      "rstrip": false,
      "normalized": false,
      "special": true
    },
    {
      "id": 87,
      "content": "[RESERVED_83]",
      "single_word": false,
      "lstrip": false,
      "rstrip": false,
      "normalized": false,
      "special": true
    },
    {
      "id": 88,
      "content": "[RESERVED_84]",
      "single_word": false,
      "lstrip": false,
      "rstrip": false,
      "normalized": false,
      "special": true
    },
    {
      "id": 89,
      "content": "[RESERVED_85]",
      "single_word": false,
      "lstrip": false,
      "rstrip": false,
      "normalized": false,
      "special": true
    },
    {
      "id": 90,
      "content": "[RESERVED_86]",
      "single_word": false,
      "lstrip": false,
      "rstrip": false,
      "normalized": false,
      "special": true
    },
    {
      "id": 91,
      "content": "[RESERVED_87]",
      "single_word": false,
      "lstrip": false,
      "rstrip": false,
      "normalized": false,
      "special": true
    },
    {
      "id": 92,
      "content": "[RESERVED_88]",
      "single_word": false,
      "lstrip": false,
      "rstrip": false,
      "normalized": false,
      "special": true
    },
    {
      "id": 93,
      "content": "[RESERVED_89]",
      "single_word": false,
      "lstrip": false,
      "rstrip": false,
      "normalized": false,
      "special": true
    },
    {
      "id": 94,
      "content": "[RESERVED_90]",
      "single_word": false,
      "lstrip": false,
      "rstrip": false,
      "normalized": false,
      "special": true
    },
    {
      "id": 95,
      "content": "[RESERVED_91]",
      "single_word": false,
      "lstrip": false,
      "rstrip": false,
      "normalized": false,
      "special": true
    },
    {
      "id": 96,
      "content": "[RESERVED_92]",
      "single_word": false,
      "lstrip": false,
      "rstrip": false,
      "normalized": false,
      "special": true
    },
    {
      "id": 97,
      "content": "[RESERVED_93]",
      "single_word": false,
      "lstrip": false,
      "rstrip": false,
      "normalized": false,
      "special": true
    },
    {
      "id": 98,
      "content": "[RESERVED_94]",
      "single_word": false,
      "lstrip": false,
      "rstrip": false,
      "normalized": false,
      "special": true
    },
    {
      "id": 99,
      "content": "[RESERVED_95]",
      "single_word": false,
      "lstrip": false,
      "rstrip": false,
      "normalized": false,
      "special": true
    },
    {
      "id": 100,
      "content": "[RESERVED_96]",
      "single_word": false,
      "lstrip": false,
      "rstrip": false,
      "normalized": false,
      "special": true
    },
    {
      "id": 101,
      "content": "[RESERVED_97]",
      "single_word": false,
      "lstrip": false,
      "rstrip": false,
      "normalized": false,
      "special": true
    },
    {
      "id": 102,
      "content": "[RESERVED_98]",
      "single_word": false,
      "lstrip": false,
      "rstrip": false,
      "normalized": false,
      "special": true
    },
    {
      "id": 103,
      "content": "[RESERVED_99]",
      "single_word": false,
      "lstrip": false,
      "rstrip": false,
      "normalized": false,
      "special": true
    }
  ],
  "normalizer": {
    "type": "Sequence",
    "normalizers": [
      {
        "type": "NFKC"
      }
    ]
  },
  "pre_tokenizer": {
    "type": "Sequence",
    "pretokenizers": [
      {
        "type": "ByteLevel",
        "add_prefix_space": true,
        "trim_offsets": true,
        "use_regex": true
      }
    ]
  },
  "post_processor": null,
  "decoder": {
    "type": "ByteLevel",
    "add_prefix_space": true,
    "trim_offsets": true,
    "use_regex": true
  },
  "model": {
    "type": "BPE",
    "dropout": null,
    "unk_token": "[UNK]",
    "continuing_subword_prefix": null,
    "end_of_word_suffix": null,
    "fuse_unk": false,
    "byte_fallback": false,
    "ignore_merges": false,
    "vocab": {
      "[PAD]": 0,
      "[UNK]": 1,
      "[BOS]": 2,
      "[EOS]": 3,
      "[RESERVED_0]": 4,
      "[RESERVED_1]": 5,
      "[RESERVED_2]": 6,
      "[RESERVED_3]": 7,
      "[RESERVED_4]": 8,
      "[RESERVED_5]": 9,
      "[RESERVED_6]": 10,
      "[RESERVED_7]": 11,
      "[RESERVED_8]": 12,
      "[RESERVED_9]": 13,
      "[RESERVED_10]": 14,
      "[RESERVED_11]": 15,
      "[RESERVED_12]": 16,
      "[RESERVED_13]": 17,
      "[RESERVED_14]": 18,
      "[RESERVED_15]": 19,
      "[RESERVED_16]": 20,
      "[RESERVED_17]": 21,
      "[RESERVED_18]": 22,
      "[RESERVED_19]": 23,
      "[RESERVED_20]": 24,
      "[RESERVED_21]": 25,
      "[RESERVED_22]": 26,
      "[RESERVED_23]": 27,
      "[RESERVED_24]": 28,
      "[RESERVED_25]": 29,
      "[RESERVED_26]": 30,
      "[RESERVED_27]": 31,
      "[RESERVED_28]": 32,
      "[RESERVED_29]": 33,
      "[RESERVED_30]": 34,
      "[RESERVED_31]": 35,
      "[RESERVED_32]": 36,
      "[RESERVED_33]": 37,
      "[RESERVED_34]": 38,
      "[RESERVED_35]": 39,
      "[RESERVED_36]": 40,
      "[RESERVED_37]": 41,
      "[RESERVED_38]": 42,
      "[RESERVED_39]": 43,
      "[RESERVED_40]": 44,
      "[RESERVED_41]": 45,
      "[RESERVED_42]": 46,
      "[RESERVED_43]": 47,
      "[RESERVED_44]": 48,
      "[RESERVED_45]": 49,
      "[RESERVED_46]": 50,
      "[RESERVED_47]": 51,
      "[RESERVED_48]": 52,
      "[RESERVED_49]": 53,
      "[RESERVED_50]": 54,
      "[RESERVED_51]": 55,
      "[RESERVED_52]": 56,
      "[RESERVED_53]": 57,
      "[RESERVED_54]": 58,
      "[RESERVED_55]": 59,
      "[RESERVED_56]": 60,
      "[RESERVED_57]": 61,
      "[RESERVED_58]": 62,
      "[RESERVED_59]": 63,
      "[RESERVED_60]": 64,
      "[RESERVED_61]": 65,
      "[RESERVED_62]": 66,
      "[RESERVED_63]": 67,
      "[RESERVED_64]": 68,
      "[RESERVED_65]": 69,
      "[RESERVED_66]": 70,
      "[RESERVED_67]": 71,
      "[RESERVED_68]": 72,
      "[RESERVED_69]": 73,
      "[RESERVED_70]": 74,
      "[RESERVED_71]": 75,
      "[RESERVED_72]": 76,
      "[RESERVED_73]": 77,
      "[RESERVED_74]": 78,
      "[RESERVED_75]": 79,
      "[RESERVED_76]": 80,
      "[RESERVED_77]": 81,
      "[RESERVED_78]": 82,
      "[RESERVED_79]": 83,
      "[RESERVED_80]": 84,
      "[RESERVED_81]": 85,
      "[RESERVED_82]": 86,
      "[RESERVED_83]": 87,
      "[RESERVED_84]": 88,
      "[RESERVED_85]": 89,
      "[RESERVED_86]": 90,
      "[RESERVED_87]": 91,
      "[RESERVED_88]": 92,
      "[RESERVED_89]": 93,
      "[RESERVED_90]": 94,
      "[RESERVED_91]": 95,
      "[RESERVED_92]": 96,
      "[RESERVED_93]": 97,
      "[RESERVED_94]": 98,
      "[RESERVED_95]": 99,
      "[RESERVED_96]": 100,
      "[RESERVED_97]": 101,
      "[RESERVED_98]": 102,
      "[RESERVED_99]": 103,
      "!": 104,
      "\"": 105,
      "#": 106,
      "$": 107,
      "%": 108,
      "&": 109,
      "'": 110,
      "(": 111,
      ")": 112,
      "*": 113,
      "+": 114,
      ",": 115,
      "-": 116,
      ".": 117,
      "/": 118,
      "0": 119,
      "1": 120,
      "2": 121,
      "3": 122,
      "4": 123,
      "5": 124,
      "6": 125,
      "7": 126,
      "8": 127,
      "9": 128,
      ":": 129,
      ";": 130,
      "<": 131,
      "=": 132,
      ">": 133,
      "?": 134,
      "@": 135,
      "A": 136,
      "B": 137,
      "C": 138,
      "D": 139,
      "E": 140,
      "F": 141,
      "G": 142,
      "H": 143,
      "I": 144,
      "J": 145,
      "K": 146,
      "L": 147,
      "M": 148,
      "N": 149,
      "O": 150,
      "P": 151,
      "Q": 152,
      "R": 153,
      "S": 154,
      "T": 155,
      "U": 156,
      "V": 157,
      "W": 158,
      "X": 159,
      "Y": 160,
      "Z": 161,
      "[": 162,
      "\\": 163,
      "]": 164,
      "^": 165,
      "_": 166,
      "`": 167,
      "a": 168,
      "b": 169,
      "c": 170,
      "d": 171,
      "e": 172,
      "f": 173,
      "g": 174,
      "h": 175,
      "i": 176,
      "j": 177,
      "k": 178,
      "l": 179,
      "m": 180,
      "n": 181,
      "o": 182,
      "p": 183,
      "q": 184,
      "r": 185,
      "s": 186,
      "t": 187,
      "u": 188,
      "v": 189,
      "w": 190,
      "x": 191,
      "y": 192,
      "z": 193,
      "{": 194,
      "|": 195,
      "}": 196,
      "~": 197,
      "¡": 198,
      "¢": 199,
      "£": 200,
      "¤": 201,
      "¥": 202,
      "¦": 203,
      "§": 204,
      "¨": 205,
      "©": 206,
      "ª": 207,
      "«": 208,
      "¬": 209,
      "®": 210,
      "¯": 211,
      "°": 212,
      "±": 213,
      "²": 214,
      "³": 215,
      "´": 216,
      "µ": 217,
      "¶": 218,
      "·": 219,
      "¸": 220,
      "¹": 221,
      "º": 222,
      "»": 223,
      "¼": 224,
      "½": 225,
      "¾": 226,
      "¿": 227,
      "Â": 228,
      "Ã": 229,
      "Ä": 230,
      "Å": 231,
      "Æ": 232,
      "Ç": 233,
      "È": 234,
      "É": 235,
      "Ê": 236,
      "Ë": 237,
      "Ì": 238,
      "Í": 239,
      "Î": 240,
      "Ï": 241,
      "Ð": 242,
      "Ñ": 243,
      "Ò": 244,
      "Ó": 245,
      "Ô": 246,
      "Õ": 247,
      "Ö": 248,
      "×": 249,
      "Ø": 250,
      "Ù": 251,
      "Ú": 252,
      "Û": 253,
      "Ü": 254,
      "Ý": 255,
      "Þ": 256,
      "ß": 257,
      "à": 258,
      "á": 259,
      "â": 260,
      "ã": 261,
      "ä": 262,
      "å": 263,
      "æ": 264,
      "ç": 265,
      "è": 266,
      "é": 267,
      "ê": 268,
      "ë": 269,
      "ì": 270,
      "í": 271,
      "î": 272,
      "ï": 273,
      "ð": 274,
      "ó": 275,
      "ô": 276,
      "Ā": 277,
      "ā": 278,
      "ă": 279,
      "Ą": 280,
      "ą": 281,
      "ĉ": 282,
      "Ċ": 283,
      "č": 284,
      "Ē": 285,
      "ē": 286,
      "ė": 287,
      "Ě": 288,
      "Ġ": 289,
      "ġ": 290,
      "Ģ": 291,
      "ģ": 292,
      "Ĥ": 293,
      "ĥ": 294,
      "Ħ": 295,
      "ħ": 296,
      "Ĩ": 297,
      "ĩ": 298,
      "Ī": 299,
      "ī": 300,
      "Ĭ": 301,
      "ĭ": 302,
      "Į": 303,
      "į": 304,
      "İ": 305,
      "ı": 306,
      "Ĳ": 307,
      "ĳ": 308,
      "Ĵ": 309,
      "ĵ": 310,
      "Ķ": 311,
      "ķ": 312,
      "ĸ": 313,
      "Ĺ": 314,
      "ĺ": 315,
      "Ļ": 316,
      "ļ": 317,
      "Ľ": 318,
      "ľ": 319,
      "Ŀ": 320,
      "ŀ": 321,
      "Ł": 322,
      "ł": 323,
      "Ń": 324,
      "Ġt": 325,
      "Ġa": 326,
      "in": 327,
      "he": 328,
      "re": 329,
      "on": 330,
      "er": 331,
      "Ġthe": 332,
      "Ġs": 333,
      "en": 334,
      "at": 335,
      "Ġo": 336,
      "Ġc": 337,
      "es": 338,
      "an": 339,
      "is": 340,
      "Ġw": 341,
      "it": 342,
      "or": 343,
      "al": 344,
      "Ġp": 345,
      "nd": 346,
      "Ġf": 347,
      "Ġb": 348,
      "ing": 349,
      "Ġd": 350,
      "ed": 351,
      "ar": 352,
      "Ġin": 353,
      "Ġof": 354,
      "ou": 355,
      "Ġm": 356,
      "ic": 357,
      "Ġand": 358,
      "Ġto": 359,
      "ion": 360,
      "le": 361,
      "ro": 362,
      "à¸": 363,
      "as": 364,
      "ent": 365,
      "Ġh": 366,
      "Ġe": 367,
      "il": 368,
      "Ġth": 369,
      "ct": 370,
      "Ġl": 371,
      "om": 372,
      "st": 373,
      "Ġre": 374,
      "el": 375,
      "âĢ": 376,
      "Ġn": 377,
      "Ġ1": 378,
      "et": 379,
      "Ġ0": 380,
      "Ġis": 381,
      "Ġg": 382,
      "ol": 383,
      "ch": 384,
      "ĠT": 385,
      "ve": 386,
      "us": 387,
      "ur": 388,
      "id": 389,
      "im": 390,
      "ation": 391,
      "ra": 392,
      "ĠÐ": 393,
      "ut": 394,
      "ig": 395,
      "ĠS": 396,
      "Ġbe": 397,
      "ly": 398,
      "Ġy": 399,
      "ĠA": 400,
      "ot": 401,
      "ow": 402,
      "ce": 403,
      "Ġ2": 404,
      "Ġfor": 405,
      "Ġst": 406,
      "ver": 407,
      "ir": 408,
      "Ġon": 409,
      "ĠC": 410,
      "am": 411,
      "Ġthat": 412,
      "Ð°": 413,
      "ul": 414,
      "ĠI": 415,
      "ad": 416,
      "Ð¾": 417,
      "un": 418,
      "ay": 419,
      "Ø§": 420,
      "Ġyou": 421,
      "se": 422,
      "Ġpro": 423,
      "Ġde": 424,
      "ith": 425,
      "Ġas": 426,
      "Ġare": 427,
      "Ġcon": 428,
      "Ġan": 429,
      "Ðµ": 430,
      "her": 431,
      "if": 432,
      "ter": 433,
      "ĠM": 434,
      "Ġal": 435,
      "Ġ(": 436,
      "Ġwith": 437,
      "Ġ9": 438,
      "od": 439,
      "Ð¸": 440,
      "Ġor": 441,
      "Ġit": 442,
      "ge": 443,
      "ĠP": 444,
      "Ġv": 445,
      "ĠB": 446,
      "ment": 447,
      "Ġwh": 448,
      "ess": 449,
      "ers": 450,
      "ĠThe": 451,
      "ab": 452,
      "ist": 453,
      "âĢĻ": 454,
      "Ð½": 455,
      "op": 456,
      "Ġhe": 457,
      "ill": 458,
      "and": 459,
      "ies": 460,
      "ÑĢ": 461,
      "th": 462,
      "Ġcom": 463,
      "est": 464,
      "um": 465,
      "ak": 466,
      "os": 467,
      "Ġex": 468,
      "res": 469,
      "ĠD": 470,
      "iv": 471,
      "ect": 472,
      "ac": 473,
      "ĠH": 474,
      "ate": 475,
      "qu": 476,
      "em": 477,
      "ity": 478,
      "ant": 479,
      "ore": 480,
      "Ġcan": 481,
      "ere": 482,
      "ĠE": 483,
      "Ñģ": 484,
      "ÑĤ": 485,
      "ĠW": 486,
      "ĠâĢ": 487,
      "Ġsu": 488,
      "Ġen": 489,
      "ud": 490,
      "ĠF": 491,
      "Ġ3": 492,
      "ain": 493,
      "à¹": 494,
      "pp": 495,
      "Ġ5": 496,
      "ive": 497,
      "rom": 498,
      "ĠR": 499,
      "ld": 500,
      "ort": 501,
      "oc": 502,
      "Ġch": 503,
      "Ġat": 504,
      "Ø§Ù": 505,
      "ri": 506,
      "igh": 507,
      "Ġ.": 508,
      "Ġha": 509,
      "Ġk": 510,
      "Ġ8": 511,
      "Ġse": 512,
      "Ġby": 513,
      "Ð¾Ð": 514,
      "Ġus": 515,
      "Ġr": 516,
      "ĠL": 517,
      "ĠG": 518,
      "nt": 519,
      "Ġle": 520,
      "Ġne": 521,
      "ial": 522,
      "Ġ4": 523,
      "ãģ": 524,
      "art": 525,
      "Ġfrom": 526,
      "ure": 527,
      "Ġu": 528,
      "og": 529,
      "ĠN": 530,
      "Ġwas": 531,
      "Ġ6": 532,
      "Ð»": 533,
      "ical": 534,
      "ie": 535,
      "ich": 536,
      "Ġ7": 537,
      "ag": 538,
      "Ġsp": 539,
      "Ġim": 540,
      "Ġhave": 541,
      "all": 542,
      "pt": 543,
      "du": 544,
      "Ġnot": 545,
      "Ġsh": 546,
      "Ġwe": 547,
      "ell": 548,
      "Ġyour": 549,
      "ions": 550,
      "Ġ,": 551,
      "ĠØ": 552,
      "Ġwor": 553,
      "Ġab": 554,
      "are": 555,
      "ine": 556,
      "Ġpl": 557,
      "ight": 558,
      "per": 559,
      "rou": 560,
      "our": 561,
      "ia": 562,
      "ost": 563,
      "Ġthis": 564,
      "ff": 565,
      "Ùħ": 566,
      "ru": 567,
      "hen": 568,
      "ome": 569,
      "ard": 570,
      "act": 571,
      "iz": 572,
      "out": 573,
      "ĠO": 574,
      "Ġtheir": 575,
      "gh": 576,
      "ans": 577,
      "The": 578,
      "pl": 579,
      "ik": 580,
      "Ġint": 581,
      "ther": 582,
      "age": 583,
      "ated": 584,
      "ĠU": 585,
      "Ø§ÙĦ": 586,
      "ast": 587,
      "end": 588,
      "ould": 589,
      "ĠJ": 590,
      "ult": 591,
      "ide": 592,
      "Ùĩ": 593,
      "Ġad": 594,
      "ib": 595,
      "Ðº": 596,
      "Ġun": 597,
      "ãĥ": 598,
      "Ñĥ": 599,
      "ear": 600,
      "ec": 601,
      "ood": 602,
      "ust": 603,
      "Ġinc": 604,
      "Ġcomp": 605,
      "ip": 606,
      "ap": 607,
      "cc": 608,
      "Ġcont": 609,
      "ous": 610,
      "ĠIn": 611,
      "Ġthey": 612,
      "ãĤ": 613,
      "Ø±": 614,
      "Ġ-": 615,
      "Ġwill": 616,
      "Ġdis": 617,
      "Ġall": 618,
      "orm": 619,
      "Ġmore": 620,
      "so": 621,
      "Ġwhich": 622,
      "Ġres": 623,
      "ations": 624,
      "ach": 625,
      "ild": 626,
      "ong": 627,
      "vel": 628,
      "ks": 629,
      "ire": 630,
      "ĠK": 631,
      "Ġte": 632,
      "ater": 633,
      "âĢĿ": 634,
      "ĠØ§ÙĦ": 635,
      "ĠTh": 636,
      "ind": 637,
      "Ã¤": 638,
      "Ġhas": 639,
      "able": 640,
      "Ġimp": 641,
      "ÙĪ": 642,
      "Ġj": 643,
      "Ġund": 644,
      "Ġman": 645,
      "ance": 646,
      "Ġdo": 647,
      "ual": 648,
      "ep": 649,
      "ry": 650,
      "ber": 651,
      "Ø§Ø": 652,
      "ign": 653,
      "Ġcl": 654,
      "ens": 655,
      "ary": 656,
      "ents": 657,
      "ence": 658,
      "Ñĭ": 659,
      "Ġalso": 660,
      "Ġper": 661,
      "av": 662,
      "ass": 663,
      "te": 664,
      "à¸²": 665,
      "ake": 666,
      "á±": 667,
      "reat": 668,
      "Ġother": 669,
      "Ġme": 670,
      "ok": 671,
      "Ġar": 672,
      "Ġ)": 673,
      "ang": 674,
      "ĠâĢľ": 675,
      "ÛĮ": 676,
      "Ġbut": 677,
      "aus": 678,
      "ress": 679,
      "Ġqu": 680,
      "ord": 681,
      "ition": 682,
      "ĠSt": 683,
      "ces": 684,
      "Ġpre": 685,
      "ase": 686,
      "ĠV": 687,
      "ction": 688,
      "Ġso": 689,
      "ely": 690,
      "Ġsy": 691,
      "ors": 692,
      "ue": 693,
      "Ġone": 694,
      "Ġpart": 695,
      "one": 696,
      "Ġapp": 697,
      "ice": 698,
      "Ð²": 699,
      "ime": 700,
      "Ð´": 701,
      "Ġstud": 702,
      "Ġout": 703,
      "ose": 704,
      "Ð¼": 705,
      "ack": 706,
      "à¸²à¸": 707,
      "rit": 708,
      "ace": 709,
      "ub": 710,
      "Ġinf": 711,
      "Ġabout": 712,
      "ren": 713,
      "Ġpe": 714,
      "very": 715,
      "Ġcomm": 716,
      "Ġev": 717,
      "ÙĨ": 718,
      "ĠIt": 719,
      "ory": 720,
      "Ġdes": 721,
      "Ġsc": 722,
      "ount": 723,
      "ric": 724,
      "ile": 725,
      "Ġthem": 726,
      "ĠâĢĵ": 727,
      "olog": 728,
      "Ġwere": 729,
      "ish": 730,
      "Ã¶": 731,
      "iff": 732,
      "ning": 733,
      "now": 734,
      "ame": 735,
      "Ġfe": 736,
      "mer": 737,
      "ople": 738,
      "Ġits": 739,
      "ound": 740,
      "'s": 741,
      "Ġwho": 742,
      "alth": 743,
      "ĠThis": 744,
      "vers": 745,
      "Ġtra": 746,
      "Ñı": 747,
      "ays": 748,
      "ĠĊ": 749,
      "ĠCh": 750,
      "ne": 751,
      "Ġmay": 752,
      "ts": 753,
      "Ġrec": 754,
      "Ġbec": 755,
      "we": 756,
      "ail": 757,
      "ten": 758,
      "ree": 759,
      "Ġup": 760,
      "Ġro": 761,
      "Ġhel": 762,
      "ys": 763,
      "ian": 764,
      "ÙĬ": 765,
      "Ã©": 766,
      "ings": 767,
      "ite": 768,
      "à¸Ļ": 769,
      "Ġwork": 770,
      "Ġwhen": 771,
      "ific": 772,
      "Ġhow": 773,
      "tern": 774,
      "Ġlik": 775,
      "Ġsome": 776,
      "Ġinto": 777,
      "lic": 778,
      "Ġ\"": 779,
      "Ġpeople": 780,
      "lud": 781,
      "Ġover": 782,
      "Ġhelp": 783,
      "oll": 784,
      "Ġbl": 785,
      "Ġthan": 786,
      "Ġla": 787,
      "Ġdiff": 788,
      "Ġour": 789,
      "ph": 790,
      "Ġthese": 791,
      "Ġyear": 792,
      "ond": 793,
      "ons": 794,
      "ll": 795,
      "ates": 796,
      "Ġact": 797,
      "Ġtime": 798,
      "erv": 799,
      "Ġcons": 800,
      "Ġunder": 801,
      "Ġgo": 802,
      "rough": 803,
      "ÙĦ": 804,
      "ities": 805,
      "ms": 806,
      "Ġuse": 807,
      "ob": 808,
      "Ġhis": 809,
      "ĠY": 810,
      "les": 811,
      "ÑģÑĤ": 812,
      "Ġacc": 813,
      "Ġneed": 814,
      "Ġbet": 815,
      "ments": 816,
      "Ġi": 817,
      "Ġthere": 818,
      "stem": 819,
      "Ġag": 820,
      "ally": 821,
      "Øª": 822,
      "Ġfl": 823,
      "here": 824,
      "ffect": 825,
      "Ġsa": 826,
      "velop": 827,
      "ough": 828,
      "lect": 829,
      "Ġknow": 830,
      "ause": 831,
      "row": 832,
      "Ġbeen": 833,
      "Ġz": 834,
      "ove": 835,
      "Ġam": 836,
      "à¸£": 837,
      "ov": 838,
      "ient": 839,
      "Ġmost": 840,
      "ook": 841,
      "Ġinclud": 842,
      "Ġra": 843,
      "ĠĠ": 844,
      "cess": 845,
      "Ġchild": 846,
      "Ġsuch": 847,
      "ious": 848,
      "Ġpr": 849,
      "ating": 850,
      "yp": 851,
      "Ġtr": 852,
      "irst": 853,
      "Ġprodu": 854,
      "Ð³": 855,
      "red": 856,
      "iet": 857,
      "ject": 858,
      "Ã¥": 859,
      "ef": 860,
      "Ġnew": 861,
      "à¸Ń": 862,
      "ĠÐ¿": 863,
      "ng": 864,
      "ular": 865,
      "ark": 866,
      "Ġem": 867,
      "ert": 868,
      "Ġprov": 869,
      "ck": 870,
      "Ġrel": 871,
      "ÑĢÐ°": 872,
      "Ġhealth": 873,
      "als": 874,
      "Ġcol": 875,
      "Ø³": 876,
      "ational": 877,
      "ple": 878,
      "Ġgen": 879,
      "ool": 880,
      "ĠUn": 881,
      "Ġind": 882,
      "Ġdevelop": 883,
      "Ġif": 884,
      "ise": 885,
      "Ġder": 886,
      "Ñĩ": 887,
      "Ġph": 888,
      "uring": 889,
      "ced": 890,
      "Ġused": 891,
      "eth": 892,
      "Ġmed": 893,
      "Ġrep": 894,
      "ics": 895,
      "à¹Ģ": 896,
      "Ġoff": 897,
      "Ġthrough": 898,
      "Ġwhat": 899,
      "round": 900,
      "Ġany": 901,
      "Ġlike": 902,
      "ility": 903,
      "Ġatt": 904,
      "int": 905,
      "Ø¯": 906,
      "ÐµÐ½": 907,
      "Ġtw": 908,
      "Ġreg": 909,
      "Ġsystem": 910,
      "oss": 911,
      "fter": 912,
      "ung": 913,
      "ãĢ": 914,
      "Ġspec": 915,
      "iss": 916,
      "eg": 917,
      "ower": 918,
      "Ġmany": 919,
      "hed": 920,
      "ath": 921,
      "Ġdiffere": 922,
      "ram": 923,
      "ful": 924,
      "ade": 925,
      "ĠÐ²": 926,
      "ĠÑģ": 927,
      "ied": 928,
      "Ð¹": 929,
      "ink": 930,
      "Ġfirst": 931,
      "ÑĮ": 932,
      "oth": 933,
      "à¹Ī": 934,
      "ures": 935,
      "its": 936,
      "Ġadd": 937,
      "rib": 938,
      "Ġno": 939,
      "old": 940,
      "rop": 941,
      "Ġac": 942,
      "erm": 943,
      "chn": 944,
      "Ġonly": 945,
      "Ġass": 946,
      "Ġexp": 947,
      "ract": 948,
      "Ġwould": 949,
      ").": 950,
      "à¸ģ": 951,
      "ative": 952,
      "Ġhad": 953,
      "ange": 954,
      "ew": 955,
      "Ġvar": 956,
      "ased": 957,
      "ick": 958,
      "In": 959,
      "uc": 960,
      "Ñħ": 961,
      "Ã¼": 962,
      "Ġav": 963,
      "Ġwater": 964,
      "Ġdec": 965,
      "Ġsur": 966,
      "ife": 967,
      "Ð·": 968,
      "Ð°Ð½": 969,
      "Ġwell": 970,
      "uch": 971,
      "ft": 972,
      "Ġinv": 973,
      "Ġsupp": 974,
      "ible": 975,
      "ss": 976,
      "gan": 977,
      "ĠØ¨": 978,
      "arch": 979,
      "à¸±": 980,
      "ĠHe": 981,
      "ble": 982,
      "ien": 983,
      "Ġlear": 984,
      "Ġob": 985,
      "Ġsk": 986,
      "io": 987,
      "Ġimport": 988,
      "form": 989,
      "Ġbu": 990,
      "ting": 991,
      "à¸ĩ": 992,
      "Ġtwo": 993,
      "ata": 994,
      "Ġhigh": 995,
      "ins": 996,
      "Ġco": 997,
      "Ġpers": 998,
      "Ġrem": 999,
      "Ġsm": 1000,
      "yd": 1001,
      "Ð¾Ð²": 1002,
      "Ġmake": 1003,
      "Ø¹": 1004,
      "Ġshould": 1005,
      "hes": 1006,
      "erg": 1007,
      "own": 1008,
      "ah": 1009,
      "Ġpo": 1010,
      "Ġget": 1011,
      "ont": 1012,
      "und": 1013,
      "Ġet": 1014,
      "cy": 1015,
      "wn": 1016,
      "à¹Ģà¸": 1017,
      "Ð¿": 1018,
      "ween": 1019,
      "land": 1020,
      "Ġ:": 1021,
      "Ġtrans": 1022,
      "ience": 1023,
      "ural": 1024,
      "..": 1025,
      "ines": 1026,
      "Ġwhere": 1027,
      "Ġrese": 1028,
      "ants": 1029,
      "chool": 1030,
      "Ġdet": 1031,
      "Ġexper": 1032,
      "ĠÐ¸": 1033,
      "ern": 1034,
      "ident": 1035,
      "de": 1036,
      "xt": 1037,
      "Ġher": 1038,
      "Ġpres": 1039,
      "Ġbetween": 1040,
      "ily": 1041,
      "hat": 1042,
      "ever": 1043,
      "),": 1044,
      "aking": 1045,
      "Ġke": 1046,
      "Ġmod": 1047,
      "Ġyears": 1048,
      "Ġsub": 1049,
      "ology": 1050,
      "Ġer": 1051,
      "Ġform": 1052,
      "ivers": 1053,
      "ier": 1054,
      "Ġtyp": 1055,
      "Ġinter": 1056,
      "Ð±": 1057,
      "Ġsign": 1058,
      "omm": 1059,
      "ution": 1060,
      "Ġinst": 1061,
      "Ġdifferent": 1062,
      "Ġeffect": 1063,
      "Ġcar": 1064,
      "ness": 1065,
      "fore": 1066,
      "Ġexam": 1067,
      "au": 1068,
      "Ġel": 1069,
      "Ġtechn": 1070,
      "Ġworld": 1071,
      "Ġcould": 1072,
      "oy": 1073,
      "Ġdisc": 1074,
      "Ġed": 1075,
      "meric": 1076,
      "Ġprocess": 1077,
      "vent": 1078,
      "ĠAl": 1079,
      "Ġear": 1080,
      "ĠâĢĶ": 1081,
      "ÐµÑĢ": 1082,
      "à¸µ": 1083,
      "iron": 1084,
      "get": 1085,
      "elf": 1086,
      "à¹ī": 1087,
      "ict": 1088,
      "Ġsoc": 1089,
      "Ġway": 1090,
      "Ġsim": 1091,
      "Ġincre": 1092,
      "Ġlong": 1093,
      "ered": 1094,
      "Ġinform": 1095,
      "Ġnum": 1096,
      "ÑģÐº": 1097,
      "ature": 1098,
      "arm": 1099,
      "stand": 1100,
      "ism": 1101,
      "isc": 1102,
      "Ġimportant": 1103,
      "ues": 1104,
      "ists": 1105,
      "Ġjust": 1106,
      "ited": 1107,
      "Ġeven": 1108,
      "iel": 1109,
      "Ġpol": 1110,
      "ives": 1111,
      "ĠÐº": 1112,
      "Ġresp": 1113,
      "ually": 1114,
      "Ġsom": 1115,
      "Ġfound": 1116,
      "Ġhum": 1117,
      "Ġent": 1118,
      "isk": 1119,
      "ices": 1120,
      "ock": 1121,
      "à¸¡": 1122,
      "Ġart": 1123,
      "ically": 1124,
      "ĠÐ¾": 1125,
      "ody": 1126,
      "Ġcent": 1127,
      "ĠÐ½": 1128,
      "Ġcre": 1129,
      "Ġpat": 1130,
      "ĠÙħ": 1131,
      "Ġlead": 1132,
      "Ġcommun": 1133,
      "Ð¾Ð´": 1134,
      "Ġdel": 1135,
      "Ġevery": 1136,
      "Ġchildren": 1137,
      "ruct": 1138,
      "Ġafter": 1139,
      "urn": 1140,
      "ĠPro": 1141,
      "Ġref": 1142,
      "Ġprog": 1143,
      "cept": 1144,
      "ential": 1145,
      "Ġgener": 1146,
      "ek": 1147,
      "Ġfood": 1148,
      "Ġlife": 1149,
      "Ġlar": 1150,
      "Ġdata": 1151,
      "ases": 1152,
      "Ø¬": 1153,
      "Ġbecause": 1154,
      "Ġrequ": 1155,
      "Ġbel": 1156,
      "ork": 1157,
      "Ġperson": 1158,
      "Ġcount": 1159,
      "iqu": 1160,
      "Ġsec": 1161,
      "Ġest": 1162,
      "ps": 1163,
      "Ġfam": 1164,
      "ran": 1165,
      "Ġ%": 1166,
      "Ġext": 1167,
      "Ġdi": 1168,
      "Ġthen": 1169,
      "ale": 1170,
      "Ġstudents": 1171,
      "Ġpub": 1172,
      "ĠWe": 1173,
      "Ġresult": 1174,
      "Ġvery": 1175,
      "ages": 1176,
      "viron": 1177,
      "ollow": 1178,
      "ds": 1179,
      "ĠAmeric": 1180,
      "Ġins": 1181,
      "à¸´": 1182,
      "other": 1183,
      "Ġpartic": 1184,
      "any": 1185,
      "led": 1186,
      "Ġgrow": 1187,
      "ize": 1188,
      "gg": 1189,
      "Ġes": 1190,
      "Ġfact": 1191,
      "ĠAn": 1192,
      "Ø¨": 1193,
      "Ġset": 1194,
      "Ġdep": 1195,
      "ĠAr": 1196,
      "ward": 1197,
      "Ġdie": 1198,
      "Ð°Ð»": 1199,
      "ilm": 1200,
      "ÙĤ": 1201,
      "Ð¾ÑĢ": 1202,
      "Ġduring": 1203,
      "Ġmon": 1204,
      "Ġstr": 1205,
      "Ġeach": 1206,
      "Ġmin": 1207,
      "ĠThey": 1208,
      "ĠAs": 1209,
      "Ġbeing": 1210,
      "à¸¥": 1211,
      "Ġloc": 1212,
      "Ø§ÙĨ": 1213,
      "der": 1214,
      "Ġwrit": 1215,
      "Ġthose": 1216,
      "hip": 1217,
      "Ġsol": 1218,
      "Ġche": 1219,
      "Ġlevel": 1220,
      "iew": 1221,
      "Ġgra": 1222,
      "oh": 1223,
      "Ġaut": 1224,
      "Ùī": 1225,
      ".âĢĿ": 1226,
      "Ġread": 1227,
      "Ġmain": 1228,
      "Ġdist": 1229,
      "ix": 1230,
      "Ã³": 1231,
      "ality": 1232,
      "Ġcall": 1233,
      "ron": 1234,
      "Ġoften": 1235,
      "ĠSp": 1236,
      "Ġhist": 1237,
      "itt": 1238,
      "ivid": 1239,
      "els": 1240,
      "ized": 1241,
      "Ġshe": 1242,
      "Ġfind": 1243,
      "Ġden": 1244,
      "ÑĪ": 1245,
      "orn": 1246,
      "Ġgl": 1247,
      "Th": 1248,
      "Ð°ÑĢ": 1249,
      "Ġinformation": 1250,
      "Ġdef": 1251,
      "Ġproble": 1252,
      "Ġexpl": 1253,
      "Ġcur": 1254,
      "Ġdem": 1255,
      "Ã¶r": 1256,
      "ĠHow": 1257,
      "ection": 1258,
      "Ġusing": 1259,
      "Ġschool": 1260,
      "cent": 1261,
      "Ġprot": 1262,
      "Ġcomple": 1263,
      "ergy": 1264,
      "Ð¾Ð»": 1265,
      "Ġown": 1266,
      "imes": 1267,
      "Ġstudy": 1268,
      "Ùĥ": 1269,
      "Ġtreat": 1270,
      "ĠIf": 1271,
      "Ġmuch": 1272,
      "ÑĨ": 1273,
      "dition": 1274,
      "vironment": 1275,
      "ather": 1276,
      "Ġredu": 1277,
      "Ġgood": 1278,
      "Ġback": 1279,
      "Ġfollow": 1280,
      "Ġdoes": 1281,
      "rain": 1282,
      "ug": 1283,
      "ional": 1284,
      "à¸§": 1285,
      "Ġactiv": 1286,
      "ars": 1287,
      "Ġsaid": 1288,
      "ands": 1289,
      "ral": 1290,
      "Ġess": 1291,
      "Ġright": 1292,
      "Ð¾Ð¼": 1293,
      "inal": 1294,
      "ital": 1295,
      "Ġbody": 1296,
      "à¸¢": 1297,
      "Ġdesign": 1298,
      "Ġtest": 1299,
      "ãģ®": 1300,
      "Ġwhile": 1301,
      "omen": 1302,
      "Ġval": 1303,
      "uss": 1304,
      "ĠÐ±": 1305,
      "Ġma": 1306,
      "Ġbo": 1307,
      "ann": 1308,
      "up": 1309,
      "Ġserv": 1310,
      "ĠFor": 1311,
      "Ġser": 1312,
      "Ġboth": 1313,
      "Ġpop": 1314,
      "Ġsee": 1315,
      "Ġdise": 1316,
      "ĠÐ³": 1317,
      "Ġresearch": 1318,
      "gen": 1319,
      "ved": 1320,
      "Ġend": 1321,
      "Ġsl": 1322,
      "Ġplay": 1323,
      "eng": 1324,
      "ĠInd": 1325,
      "Ġvis": 1326,
      "akes": 1327,
      "Ġmade": 1328,
      "Ġ|": 1329,
      "Ġsupport": 1330,
      "Ġprovid": 1331,
      "vern": 1332,
      "Ġorgan": 1333,
      "tt": 1334,
      "read": 1335,
      "Ġshow": 1336,
      "ĠZ": 1337,
      "Ġtake": 1338,
      "rol": 1339,
      "Ġstart": 1340,
      "Ġbr": 1341,
      "Ġcare": 1342,
      "iversity": 1343,
      "Ġunderstand": 1344,
      "eb": 1345,
      "con": 1346,
      "Ġmy": 1347,
      "à¸Ķ": 1348,
      "Ġbefore": 1349,
      "ven": 1350,
      "ÐµÐ»": 1351,
      "âĢľ": 1352,
      "iety": 1353,
      "ĠÐ´": 1354,
      "ets": 1355,
      "Ġsame": 1356,
      "iving": 1357,
      "Ġaround": 1358,
      "Ġsmall": 1359,
      "Ð½Ñĭ": 1360,
      "ute": 1361,
      "Ġless": 1362,
      "ves": 1363,
      "ats": 1364,
      "Ġday": 1365,
      "Ð¾Ð³": 1366,
      "Ġcommon": 1367,
      "Ġmus": 1368,
      "ters": 1369,
      "à¤": 1370,
      "à¸Ĺ": 1371,
      "ĠYou": 1372,
      "Ġpower": 1373,
      "ger": 1374,
      "Ġoch": 1375,
      "ium": 1376,
      "Ġgu": 1377,
      "Ġgrou": 1378,
      "eren": 1379,
      "ĠØ§ÙĦÙħ": 1380,
      "anc": 1381,
      "aw": 1382,
      "Ġfun": 1383,
      "ving": 1384,
      "ÓĻ": 1385,
      "Ġelect": 1386,
      "ÑĢÐµ": 1387,
      "irect": 1388,
      "ex": 1389,
      "uf": 1390,
      "à¸ķ": 1391,
      "Ú©": 1392,
      "à¸ª": 1393,
      "air": 1394,
      "ke": 1395,
      "Ġmem": 1396,
      "Ġincluding": 1397,
      "Ùģ": 1398,
      "Ð¸Ð½": 1399,
      "ince": 1400,
      "Ġallow": 1401,
      "Ġcle": 1402,
      "Ð¾Ð½": 1403,
      "Ġlook": 1404,
      "oms": 1405,
      "Ġclass": 1406,
      "Ġadv": 1407,
      "ering": 1408,
      "ogra": 1409,
      "ĠRe": 1410,
      "Ġchar": 1411,
      "Ġpract": 1412,
      "Ã¤r": 1413,
      "az": 1414,
      "Ġposs": 1415,
      "hers": 1416,
      "ĠSc": 1417,
      "ury": 1418,
      "Ġbuild": 1419,
      "ividual": 1420,
      "Ġeduc": 1421,
      "Ġenvironment": 1422,
      "ĠÛ": 1423,
      "aterial": 1424,
      "itions": 1425,
      "Ġdr": 1426,
      "à¸°": 1427,
      "Ġconsid": 1428,
      "Ø±Ùĩ": 1429,
      "Ġben": 1430,
      "Ġprof": 1431,
      "Ġdown": 1432,
      "Ġhuman": 1433,
      "Ġimpro": 1434,
      "ids": 1435,
      "ĠThese": 1436,
      "ished": 1437,
      "Ġagain": 1438,
      "Ġmet": 1439,
      "Ġbeh": 1440,
      "day": 1441,
      "ulation": 1442,
      "att": 1443,
      "Ġbest": 1444,
      "Ġeng": 1445,
      "Ġocc": 1446,
      "Ġconf": 1447,
      "acter": 1448,
      "pr": 1449,
      "Ġenergy": 1450,
      "Ġstate": 1451,
      "ross": 1452,
      "ined": 1453,
      "Ġpot": 1454,
      "Ġcell": 1455,
      "ling": 1456,
      "Ġnumber": 1457,
      "Ġ/": 1458,
      "Ġlearn": 1459,
      "ĠÑĤ": 1460,
      "Ġop": 1461,
      "ĠDe": 1462,
      "ains": 1463,
      "Ñį": 1464,
      "Ġpar": 1465,
      "ental": 1466,
      "Ġsym": 1467,
      "ave": 1468,
      "Ġeas": 1469,
      "Ġnow": 1470,
      "ffic": 1471,
      "yn": 1472,
      "Ġindividual": 1473,
      "ash": 1474,
      "iness": 1475,
      "Ġcontin": 1476,
      "Ġá±": 1477,
      "Ġcor": 1478,
      "Ġproduct": 1479,
      "Ġexample": 1480,
      ",âĢĿ": 1481,
      "Ġknown": 1482,
      "ĠNew": 1483,
      "Ø§ÙĪ": 1484,
      "af": 1485,
      "Ġequ": 1486,
      "Ġrequire": 1487,
      "Ġplan": 1488,
      "Ġtem": 1489,
      "Ġconc": 1490,
      "ĠÂ": 1491,
      "Ġ).": 1492,
      "ull": 1493,
      "Ġconst": 1494,
      "ina": 1495,
      "This": 1496,
      "inc": 1497,
      "à¸ļ": 1498,
      "ries": 1499,
      "Ġthree": 1500,
      "ner": 1501,
      "Ø·": 1502,
      "ills": 1503,
      "Ġmaterial": 1504,
      "Ġmust": 1505,
      "Ġcaus": 1506,
      "Ð¶": 1507,
      "ially": 1508,
      "rent": 1509,
      "ãĢģ": 1510,
      "ĠÃ": 1511,
      "reen": 1512,
      "ÙĬÙĩ": 1513,
      "Ġaw": 1514,
      "omp": 1515,
      "ability": 1516,
      "ĠSe": 1517,
      "ouse": 1518,
      "ources": 1519,
      "ÃŃ": 1520,
      "ĠâĢĺ": 1521,
      "itive": 1522,
      "agn": 1523,
      "ax": 1524,
      "ĠWh": 1525,
      "amp": 1526,
      "Ġiss": 1527,
      "line": 1528,
      "ĠĠĠĠ": 1529,
      "Ġgreat": 1530,
      "ĠØ¯": 1531,
      "arc": 1532,
      "Ġproject": 1533,
      "ior": 1534,
      "Ġide": 1535,
      "Ġfin": 1536,
      "ĠThere": 1537,
      "Ġphys": 1538,
      "Ð°ÑĤ": 1539,
      "iod": 1540,
      "Ġsaf": 1541,
      "Ġlearning": 1542,
      "Ġdevelopment": 1543,
      "ption": 1544,
      "ĠÐ¼": 1545,
      "Ġcour": 1546,
      "Ġappro": 1547,
      "ĠÙĪ": 1548,
      "Ġwar": 1549,
      "Ġret": 1550,
      "oun": 1551,
      "ared": 1552,
      "bs": 1553,
      "ĠAnd": 1554,
      "be": 1555,
      "Ġpos": 1556,
      "Ġsocial": 1557,
      "oci": 1558,
      "erc": 1559,
      "Ġchang": 1560,
      "film": 1561,
      "angu": 1562,
      "me": 1563,
      "outh": 1564,
      "Ġdon": 1565,
      "Ġpublic": 1566,
      "ĠAd": 1567,
      "Ġpain": 1568,
      "iven": 1569,
      "ason": 1570,
      "Ġinclude": 1571,
      "Ġhome": 1572,
      "Ġident": 1573,
      "Ġhand": 1574,
      "Ġmight": 1575,
      "ected": 1576,
      "Ġrisk": 1577,
      "Ġmat": 1578,
      "ately": 1579,
      "Ġplace": 1580,
      "Ġbre": 1581,
      "à¹ģ": 1582,
      "ethod": 1583,
      "Ġthink": 1584,
      "ination": 1585,
      "Ġgovern": 1586,
      "Ġquest": 1587,
      "alk": 1588,
      "âĢĶ": 1589,
      "ĠBut": 1590,
      "Ġreport": 1591,
      "Ġchange": 1592,
      "lish": 1593,
      "Ġant": 1594,
      "Ġcult": 1595,
      "Ġlight": 1596,
      "Ġair": 1597,
      "ify": 1598,
      "Ġpur": 1599,
      "ration": 1600,
      "ÐµÑĤ": 1601,
      "Ġnat": 1602,
      "Ġwant": 1603,
      "Ð¸ÑĤ": 1604,
      "ization": 1605,
      "Ð¾Ð¹": 1606,
      "Ġanal": 1607,
      "ret": 1608,
      "Ġstill": 1609,
      "conom": 1610,
      "Ġcalled": 1611,
      "Ġcap": 1612,
      "rodu": 1613,
      "sp": 1614,
      "Ø§Ø³": 1615,
      "Ġwithin": 1616,
      "ĠÐ½Ð°": 1617,
      "Ġdisease": 1618,
      "ining": 1619,
      "Ñİ": 1620,
      "Ġimm": 1621,
      "Ġbenef": 1622,
      "ording": 1623,
      "Ġsit": 1624,
      "Ġthough": 1625,
      "Ġprovide": 1626,
      "ty": 1627,
      "ĠEng": 1628,
      "Ġfew": 1629,
      "Ġvon": 1630,
      "Ġsignific": 1631,
      "ĠØ§ÙĦØ³": 1632,
      "ĠLe": 1633,
      "ĠIs": 1634,
      "ision": 1635,
      "Ġwithout": 1636,
      "ively": 1637,
      "Ġblood": 1638,
      "Ġspe": 1639,
      "Ð¸Ñı": 1640,
      "Ġproper": 1641,
      "Ġve": 1642,
      "ÑĦ": 1643,
      "Ġdirect": 1644,
      "erest": 1645,
      "sc": 1646,
      "Ġkeep": 1647,
      "Ġbas": 1648,
      "ertain": 1649,
      "bers": 1650,
      "Ġmark": 1651,
      "Ø§ÛĮ": 1652,
      "arent": 1653,
      "ĠPl": 1654,
      "the": 1655,
      "Ġbetter": 1656,
      "cer": 1657,
      "Ġtre": 1658,
      "Ġein": 1659,
      "ateg": 1660,
      "Ġindu": 1661,
      "imate": 1662,
      "lu": 1663,
      "Ġ×": 1664,
      "Ġperform": 1665,
      "ĠSh": 1666,
      "Ġgr": 1667,
      "Ġbus": 1668,
      "Ġpresent": 1669,
      "Ġprom": 1670,
      "Ġimpact": 1671,
      "Ġwomen": 1672,
      "Ġele": 1673,
      "man": 1674,
      "Ġdid": 1675,
      "Ġbecome": 1676,
      "Ġcause": 1677,
      "ĠTe": 1678,
      "ense": 1679,
      "ĠHowever": 1680,
      "Ġtop": 1681,
      "ĠEn": 1682,
      "Ø²": 1683,
      "Ġpass": 1684,
      "It": 1685,
      "Ġreal": 1686,
      "iter": 1687,
      "Ġfeel": 1688,
      "ĠÑĥ": 1689,
      "ãĥ¼": 1690,
      "Ġmethod": 1691,
      "osed": 1692,
      "Ġlarge": 1693,
      "Ġver": 1694,
      "ĊĠ": 1695,
      "ze": 1696,
      "less": 1697,
      "jor": 1698,
      "Ġstand": 1699,
      "Ġmeas": 1700,
      "à¸Ħ": 1701,
      "ĠEx": 1702,
      "Ð¸Ð»": 1703,
      "ĠUniversity": 1704,
      "Ġ&": 1705,
      "Ġrest": 1706,
      "amm": 1707,
      "Ġhim": 1708,
      "ank": 1709,
      "oid": 1710,
      "Ġmill": 1711,
      "Ġarea": 1712,
      "Ġcy": 1713,
      "Ġdev": 1714,
      "Ġinvol": 1715,
      "Ġaffect": 1716,
      "to": 1717,
      "Ġcreat": 1718,
      "ccess": 1719,
      "ĠCon": 1720,
      "ield": 1721,
      "ocus": 1722,
      "cing": 1723,
      "Ġcontrol": 1724,
      "Ġoper": 1725,
      "com": 1726,
      "den": 1727,
      "Ġprogram": 1728,
      "ĠCl": 1729,
      "Ġhistory": 1730,
      "Ġopp": 1731,
      "Ġbeg": 1732,
      "Ġprevent": 1733,
      "Ġens": 1734,
      "Ġleg": 1735,
      "irc": 1736,
      "Ġsever": 1737,
      "à¸«": 1738,
      "apt": 1739,
      "ĠÐ°": 1740,
      "iÃ³": 1741,
      "ource": 1742,
      "ways": 1743,
      "Ñĺ": 1744,
      "ator": 1745,
      "tain": 1746,
      "rist": 1747,
      "ients": 1748,
      "Ġplant": 1749,
      "Ġmove": 1750,
      "urop": 1751,
      "Ġanim": 1752,
      "ograph": 1753,
      "iver": 1754,
      "ological": 1755,
      "rap": 1756,
      "Ã¨": 1757,
      "ĠAmerican": 1758,
      "ogn": 1759,
      "port": 1760,
      "What": 1761,
      "ted": 1762,
      "Ġmen": 1763,
      "ards": 1764,
      "Ġearly": 1765,
      "ĠPh": 1766,
      "ĠBe": 1767,
      "eral": 1768,
      "Ð¸Ðº": 1769,
      "Ġeconom": 1770,
      "ĠRes": 1771,
      "ĠWhen": 1772,
      "ently": 1773,
      "Ġaccess": 1774,
      "Ġenc": 1775,
      "Ġlow": 1776,
      "ton": 1777,
      "Ġlangu": 1778,
      "ym": 1779,
      "Ġmeans": 1780,
      "Ġanother": 1781,
      "Ġcost": 1782,
      "ĠQ": 1783,
      "Ġfamily": 1784,
      "atic": 1785,
      "ãģ«": 1786,
      "Ġmar": 1787,
      "Ġbelie": 1788,
      "ples": 1789,
      "Ġsignificant": 1790,
      "Ġmil": 1791,
      "Ġinterest": 1792,
      "Ġmaking": 1793,
      "Ġconn": 1794,
      "ots": 1795,
      "ames": 1796,
      "Ġdesc": 1797,
      "ĠÙĩ": 1798,
      "ified": 1799,
      "ique": 1800,
      "Ġindust": 1801,
      "of": 1802,
      "une": 1803,
      "Ġcal": 1804,
      "ived": 1805,
      "à¹Į": 1806,
      "Ġtreatment": 1807,
      "âĢĮ": 1808,
      "orth": 1809,
      "ird": 1810,
      "Ġaddition": 1811,
      "Ð¸Ð¹": 1812,
      "Ġparticular": 1813,
      "ention": 1814,
      "icle": 1815,
      "Ġtoo": 1816,
      "Ġintern": 1817,
      "urs": 1818,
      "Ġfocus": 1819,
      "Ġold": 1820,
      "ones": 1821,
      "ĠOn": 1822,
      "Ġhapp": 1823,
      "Ġable": 1824,
      "ĠOr": 1825,
      "ĠØ³": 1826,
      "ians": 1827,
      "ãĢĤ": 1828,
      "Ġavail": 1829,
      "lished": 1830,
      "Ġseveral": 1831,
      "ories": 1832,
      "Ġcurrent": 1833,
      "Ġcond": 1834,
      "Ġter": 1835,
      "Ġsecond": 1836,
      "Ġfac": 1837,
      "aper": 1838,
      "hor": 1839,
      "ote": 1840,
      "ole": 1841,
      "Ġhig": 1842,
      "Ġpotential": 1843,
      "ĠTo": 1844,
      "Ġstruct": 1845,
      "Ġland": 1846,
      "Ġmajor": 1847,
      "Ġareas": 1848,
      "na": 1849,
      "par": 1850,
      "Ġfre": 1851,
      "por": 1852,
      "ĠÙĦ": 1853,
      "Ġtechnology": 1854,
      "Ġmean": 1855,
      "ÙħØ§ÙĪ": 1856,
      "agement": 1857,
      "Ġperiod": 1858,
      "Ġlast": 1859,
      "Ġcho": 1860,
      "Ġlo": 1861,
      "work": 1862,
      "ances": 1863,
      "Ġagainst": 1864,
      "Ġprofess": 1865,
      "Ġpossible": 1866,
      "Ġmit": 1867,
      "view": 1868,
      "Ġnatural": 1869,
      "ends": 1870,
      "Ġgroup": 1871,
      "Ġorder": 1872,
      "Ġsystems": 1873,
      "wyd": 1874,
      "Ġcreate": 1875,
      "ised": 1876,
      "Ġfore": 1877,
      "ission": 1878,
      "Ġopen": 1879,
      "ication": 1880,
      "Ġbased": 1881,
      "Ġut": 1882,
      "pect": 1883,
      "à¸Ľ": 1884,
      "ides": 1885,
      "ike": 1886,
      "Ġthings": 1887,
      "Ġdue": 1888,
      "Ġvarious": 1889,
      "Ġtype": 1890,
      "ring": 1891,
      "Ġhere": 1892,
      "Ġlim": 1893,
      "Ġbi": 1894,
      "Ġothers": 1895,
      "ptoms": 1896,
      "Ġlevels": 1897,
      "Ġtru": 1898,
      ".,": 1899,
      "Ġ),": 1900,
      "ĠWhat": 1901,
      "Ġlist": 1902,
      "ste": 1903,
      "uture": 1904,
      "Ġpoint": 1905,
      "sy": 1906,
      "Ø´": 1907,
      "ĠUnited": 1908,
      "ortun": 1909,
      "Ġlaw": 1910,
      "Ġpress": 1911,
      "Ġscient": 1912,
      "Ġå": 1913,
      "Ġmult": 1914,
      "pec": 1915,
      "rag": 1916,
      "ploy": 1917,
      "Ġteam": 1918,
      "Ġspecies": 1919,
      "Ġage": 1920,
      "Ð»Ð°": 1921,
      "Ġorig": 1922,
      "Ġrun": 1923,
      "ka": 1924,
      "oot": 1925,
      "ember": 1926,
      "Ġpost": 1927,
      "Ġdam": 1928,
      "abor": 1929,
      "Ġexperience": 1930,
      "ĠBl": 1931,
      "Ġtool": 1932,
      "let": 1933,
      "ths": 1934,
      "Ġproblems": 1935,
      "St": 1936,
      "urther": 1937,
      "Ġgovernment": 1938,
      "Ð¸Ð¼": 1939,
      "ĠCol": 1940,
      "eter": 1941,
      "Ġtimes": 1942,
      "ended": 1943,
      "Ġproblem": 1944,
      "osp": 1945,
      "Ġfollowing": 1946,
      "Ġbusiness": 1947,
      "over": 1948,
      "Ġfr": 1949,
      "Ġnon": 1950,
      "Ġcr": 1951,
      "br": 1952,
      "Ġneeds": 1953,
      "à¸ŀ": 1954,
      "Ġchall": 1955,
      "Ġinvest": 1956,
      "If": 1957,
      "ilar": 1958,
      "ĠÐ¿ÑĢ": 1959,
      "Ġavailable": 1960,
      "Ġlocal": 1961,
      "ittle": 1962,
      "Ġhead": 1963,
      "Ġconsum": 1964,
      "Ġimprove": 1965,
      "Ġbehav": 1966,
      "Ġsuccess": 1967,
      "Ġspecific": 1968,
      "Ġhard": 1969,
      "icult": 1970,
      "Ð¾Ñģ": 1971,
      "Ġeducation": 1972,
      "Ġyn": 1973,
      "Ġunt": 1974,
      "aut": 1975,
      "Ġheart": 1976,
      "Ġamount": 1977,
      "Ġnear": 1978,
      "sel": 1979,
      "ĠfÃ¶r": 1980,
      "Ġwhe": 1981,
      "Ġsince": 1982,
      "Ġcertain": 1983,
      "ĠÐ·": 1984,
      "How": 1985,
      "cle": 1986,
      "ĠEurop": 1987,
      "lev": 1988,
      "ĠÐ¡": 1989,
      "Ġopt": 1990,
      "Ġcountry": 1991,
      "ada": 1992,
      "hem": 1993,
      "idence": 1994,
      "ression": 1995,
      "kt": 1996,
      "ĠØª": 1997,
      "cl": 1998,
      "Ġcome": 1999,
      "à¸²à¸£": 2000,
      "Ġmot": 2001,
      "Ġdig": 2002,
      "Ġkey": 2003,
      "Ġfunction": 2004,
      "hy": 2005,
      "Ġvir": 2006,
      "use": 2007,
      "Ġsw": 2008,
      "à¸Ī": 2009,
      "idd": 2010,
      "Ġcomput": 2011,
      "ãĤĭ": 2012,
      "Ġlet": 2013,
      "Ġrole": 2014,
      "Ġfree": 2015,
      "Ġyoung": 2016,
      "ĠAt": 2017,
      "Ġamong": 2018,
      "Ġrece": 2019,
      "edi": 2020,
      "Ġassoci": 2021,
      "Ġconditions": 2022,
      "Ġfour": 2023,
      "ledge": 2024,
      "ape": 2025,
      "We": 2026,
      "Ġsay": 2027,
      "Ġapplic": 2028,
      "Ġlanguage": 2029,
      "ean": 2030,
      "Ġque": 2031,
      "Ġbro": 2032,
      "Ú¯": 2033,
      "aster": 2034,
      "Ġey": 2035,
      "resent": 2036,
      "Ġcrit": 2037,
      "ÐµÐ¼": 2038,
      "Ġsing": 2039,
      "Ð¾ÑĤ": 2040,
      "Ġshort": 2041,
      "ĠComm": 2042,
      "Ġcomb": 2043,
      "lement": 2044,
      "ilt": 2045,
      "Ġworks": 2046,
      "enn": 2047,
      "ething": 2048,
      "Ġbook": 2049,
      "Ġbrain": 2050,
      "á±Ł": 2051,
      "Ġfuture": 2052,
      "ĠUS": 2053,
      "ĠSch": 2054,
      "Ġsymptoms": 2055,
      "ster": 2056,
      "oks": 2057,
      "atory": 2058,
      "Ġput": 2059,
      "à¸¸": 2060,
      "orts": 2061,
      "Ġname": 2062,
      "ott": 2063,
      "urch": 2064,
      "Ġobject": 2065,
      "ending": 2066,
      "min": 2067,
      "ising": 2068,
      "Ġpolit": 2069,
      "ĠCan": 2070,
      "Ġvol": 2071,
      "ilities": 2072,
      "asing": 2073,
      "Ġtemper": 2074,
      "à¹ĥ": 2075,
      "alt": 2076,
      "ĠNational": 2077,
      "ai": 2078,
      "Ø§Ø¹": 2079,
      "olution": 2080,
      "Ġprim": 2081,
      "'t": 2082,
      "mp": 2083,
      "Ġcommunity": 2084,
      "ĠAf": 2085,
      "ours": 2086,
      "Ġskills": 2087,
      "ãģŁ": 2088,
      "Ġpercent": 2089,
      "Ã¼r": 2090,
      "Ð¾Ð³Ð¾": 2091,
      "Ġacross": 2092,
      "Ġwhy": 2093,
      "ler": 2094,
      "ĠCent": 2095,
      "As": 2096,
      "Ġincrease": 2097,
      "Ġfar": 2098,
      "Ġcase": 2099,
      "Ġsays": 2100,
      "ĠAll": 2101,
      "orld": 2102,
      "Ġcells": 2103,
      "ohn": 2104,
      "by": 2105,
      "à¸Ńà¸ĩ": 2106,
      "ĠÐ³Ð¾Ð´": 2107,
      "Ġtypes": 2108,
      "Ø§Øª": 2109,
      "aces": 2110,
      "Ø§Ø³Øª": 2111,
      "though": 2112,
      "ãĥ³": 2113,
      "Ġtoday": 2114,
      "ges": 2115,
      "obal": 2116,
      "Ġteac": 2117,
      "edd": 2118,
      "ĠSo": 2119,
      "Ġlikely": 2120,
      "Ġnut": 2121,
      "ode": 2122,
      "ĠStates": 2123,
      "Ġcirc": 2124,
      "ĠBy": 2125,
      "ators": 2126,
      "Ð¸Ð¸": 2127,
      "Ġespec": 2128,
      "stit": 2129,
      "Ġturn": 2130,
      "Ġparent": 2131,
      "Ġprotect": 2132,
      "Ġdifficult": 2133,
      "Ġways": 2134,
      "oring": 2135,
      "ried": 2136,
      "ae": 2137,
      "Ġspecial": 2138,
      "lo": 2139,
      "Ġspace": 2140,
      "ĠMar": 2141,
      "Ġalong": 2142,
      "Ġplants": 2143,
      "Ġstep": 2144,
      "Ġrad": 2145,
      "à¸·": 2146,
      "Ġcourse": 2147,
      "Ġessential": 2148,
      "Ġdeterm": 2149,
      "Ġsomething": 2150,
      "Ġview": 2151,
      "Ġcancer": 2152,
      "Ġsens": 2153,
      "icro": 2154,
      "Ġusually": 2155,
      "acy": 2156,
      "ured": 2157,
      "aring": 2158,
      "Ġphysical": 2159,
      "ades": 2160,
      "face": 2161,
      "Ġalways": 2162,
      "ribut": 2163,
      "raw": 2164,
      "Ġrespons": 2165,
      "ope": 2166,
      "Ġchanges": 2167,
      "iau": 2168,
      "Ġworking": 2169,
      "chie": 2170,
      "Ġnet": 2171,
      "Ġur": 2172,
      "Ġge": 2173,
      "ably": 2174,
      "Ġlittle": 2175,
      "ware": 2176,
      "Ġbir": 2177,
      "Ġuntil": 2178,
      "sw": 2179,
      "ored": 2180,
      "ires": 2181,
      "ysis": 2182,
      "Ø§Ø¯": 2183,
      "ument": 2184,
      "Ġmind": 2185,
      "atch": 2186,
      "Ġreduce": 2187,
      "ĠÂ«": 2188,
      "ggest": 2189,
      "Ð¾ÑģÑĤ": 2190,
      "Ġquality": 2191,
      "etic": 2192,
      "...": 2193,
      "Ġdeath": 2194,
      "Ġresults": 2195,
      "Ġill": 2196,
      "Ġlater": 2197,
      "Ã¡": 2198,
      "Ġpast": 2199,
      "ĠMed": 2200,
      "Ġtoget": 2201,
      "iol": 2202,
      "Ġtogether": 2203,
      "Ġdays": 2204,
      "ruction": 2205,
      "Ġespecially": 2206,
      "Ġcharacter": 2207,
      "oint": 2208,
      "rug": 2209,
      "Ġtry": 2210,
      "ĠAm": 2211,
      "Ġcontain": 2212,
      "leep": 2213,
      "Ġstrong": 2214,
      "cul": 2215,
      "Ġgive": 2216,
      "Ð°Ðº": 2217,
      "ÃŁ": 2218,
      "aps": 2219,
      "ãģ¨": 2220,
      "Ġnecess": 2221,
      "Â»": 2222,
      "Ġhigher": 2223,
      "ane": 2224,
      "Ġresearc": 2225,
      "Ġchem": 2226,
      "ables": 2227,
      "ox": 2228,
      "aken": 2229,
      "Ġwords": 2230,
      "Ġbegin": 2231,
      "ush": 2232,
      "Ġterm": 2233,
      "Ġdiet": 2234,
      "Ġmov": 2235,
      "not": 2236,
      "Ġsuggest": 2237,
      "Ġactivities": 2238,
      "omes": 2239,
      "ĠChrist": 2240,
      "Ġissues": 2241,
      "acc": 2242,
      "There": 2243,
      "Ġdiscuss": 2244,
      "Ġrecord": 2245,
      "ĠÐļ": 2246,
      "Ġeffects": 2247,
      "ison": 2248,
      "ĠCar": 2249,
      "Ġappear": 2250,
      "Ġconsider": 2251,
      "Ġgre": 2252,
      "Ġunderstanding": 2253,
      "iting": 2254,
      "ales": 2255,
      "ĠGod": 2256,
      "atures": 2257,
      "ems": 2258,
      "aves": 2259,
      "ĠWith": 2260,
      "Ġpaper": 2261,
      ".\"": 2262,
      "ee": 2263,
      "An": 2264,
      "Ġflow": 2265,
      "à¹Ħ": 2266,
      "Ġinflu": 2267,
      "Ġestab": 2268,
      "Ġmakes": 2269,
      "Ġmillion": 2270,
      "aging": 2271,
      "aching": 2272,
      "ired": 2273,
      "Ġcolle": 2274,
      "oney": 2275,
      "Ġproduction": 2276,
      "ety": 2277,
      "ãģ¯": 2278,
      "ÐµÐ´": 2279,
      "Ġcountries": 2280,
      "Ġhealthy": 2281,
      "vious": 2282,
      "à¸¹": 2283,
      "à¸Ĭ": 2284,
      "ils": 2285,
      "Ġclear": 2286,
      "Ø³Øª": 2287,
      "bon": 2288,
      "Ġtill": 2289,
      "urity": 2290,
      "ĠEl": 2291,
      "Ġnext": 2292,
      "Ġlot": 2293,
      "Ġrange": 2294,
      "Ġknowledge": 2295,
      "Ġgiven": 2296,
      "Ġproducts": 2297,
      "ĠAb": 2298,
      "ãĤĴ": 2299,
      "Ġexist": 2300,
      "Ġgrowth": 2301,
      "ä¸": 2302,
      "Ġloss": 2303,
      "fer": 2304,
      "Ġsimilar": 2305,
      "Ġ[": 2306,
      "ipp": 2307,
      "bre": 2308,
      "Ġpatients": 2309,
      "Ġbig": 2310,
      "ead": 2311,
      "Ø§ÙĬ": 2312,
      "Ġstress": 2313,
      "Ð¸Ðµ": 2314,
      "à¹Ĥ": 2315,
      "Ġfull": 2316,
      "à¸µà¹Ī": 2317,
      "itz": 2318,
      "Ġask": 2319,
      "Ġrelations": 2320,
      "ĠPr": 2321,
      "Ġobs": 2322,
      "Ã©s": 2323,
      "Ġexc": 2324,
      "ØŃ": 2325,
      "×Ļ": 2326,
      "Ġprop": 2327,
      "ĠAfric": 2328,
      "Ġside": 2329,
      "Ġresources": 2330,
      "Ġachie": 2331,
      "ĠpÃ¥": 2332,
      "ither": 2333,
      "Ġmedical": 2334,
      "Ġself": 2335,
      "ĠEar": 2336,
      "Ġsure": 2337,
      "wards": 2338,
      "rad": 2339,
      "ÐµÐº": 2340,
      "duct": 2341,
      "eds": 2342,
      "str": 2343,
      "for": 2344,
      "ĠÐĴ": 2345,
      "Ġenough": 2346,
      "Ð°Ð¼": 2347,
      "Ġeffic": 2348,
      "ray": 2349,
      "Ġaway": 2350,
      "side": 2351,
      "Ġhar": 2352,
      "ãģĹ": 2353,
      "Ġpopulation": 2354,
      "Ġann": 2355,
      "Ġline": 2356,
      "Ġcases": 2357,
      "Ġnorm": 2358,
      "self": 2359,
      "ibility": 2360,
      "Ġtradition": 2361,
      "Ġfund": 2362,
      "Ġauthor": 2363,
      "Ġkind": 2364,
      "Ġsum": 2365,
      "Ġcentury": 2366,
      "Ġskin": 2367,
      "æľ": 2368,
      "Ġoccur": 2369,
      "Ġtext": 2370,
      "Ġlower": 2371,
      "Ø©": 2372,
      "Ġsitu": 2373,
      "Ġmaterials": 2374,
      "Ġstory": 2375,
      "Ġ'": 2376,
      "ivity": 2377,
      "istic": 2378,
      "ĠSome": 2379,
      "go": 2380,
      "amin": 2381,
      "Ġparticip": 2382,
      "Ġwriting": 2383,
      "Ġclimate": 2384,
      "Ġeffective": 2385,
      "app": 2386,
      "Ġdescrib": 2387,
      "ĠShe": 2388,
      "thing": 2389,
      "Ġsam": 2390,
      "ourn": 2391,
      "||": 2392,
      "Ġexperien": 2393,
      "ips": 2394,
      "ma": 2395,
      "selves": 2396,
      "Ġdog": 2397,
      "Ġaccount": 2398,
      "Ġbuilding": 2399,
      "mber": 2400,
      "Ġhaving": 2401,
      "ĠWorld": 2402,
      "Ġindividuals": 2403,
      "ley": 2404,
      "fl": 2405,
      "ĠX": 2406,
      "ament": 2407,
      "Ġdifferen": 2408,
      "ene": 2409,
      "iation": 2410,
      "ĠØ¬": 2411,
      "Ġfamil": 2412,
      "Ġscience": 2413,
      "tal": 2414,
      "Ġ$": 2415,
      "Ġemploy": 2416,
      "Ġaddress": 2417,
      "ints": 2418,
      "Ġwur": 2419,
      "ĠGo": 2420,
      "Ġrepresent": 2421,
      "Ġstrateg": 2422,
      "Ġfurther": 2423,
      "For": 2424,
      "ĠGe": 2425,
      "Ġhab": 2426,
      "Ð°Ð²": 2427,
      "Ġhistor": 2428,
      "Ġessay": 2429,
      "ream": 2430,
      "Ġgoing": 2431,
      "oman": 2432,
      "Ġleast": 2433,
      "most": 2434,
      "Ġrecogn": 2435,
      "Ġeta": 2436,
      "ÑģÑĤÐ²": 2437,
      "Ġhelps": 2438,
      "Ġvers": 2439,
      "Ġgeneral": 2440,
      "Al": 2441,
      "ises": 2442,
      "ÙĬÙħ": 2443,
      "ari": 2444,
      "Ġintrodu": 2445,
      "à¹ĩ": 2446,
      "Ġopportun": 2447,
      "ĠBrit": 2448,
      "izing": 2449,
      "Ġpred": 2450,
      "Ġactivity": 2451,
      "ival": 2452,
      "Ġneg": 2453,
      "ĠHealth": 2454,
      "ĠØ§ÙĦØ³ÙħØ§ÙĪ": 2455,
      "ÙĤÙĬÙħ": 2456,
      "uel": 2457,
      "Ġfil": 2458,
      "ights": 2459,
      "When": 2460,
      "Ò¯": 2461,
      "yle": 2462,
      "à¸Ĥ": 2463,
      "ĠOne": 2464,
      "sych": 2465,
      "Ġmanagement": 2466,
      "lease": 2467,
      "ischen": 2468,
      "ãģĦ": 2469,
      "ney": 2470,
      "ĠMan": 2471,
      "Ġpersonal": 2472,
      "Ġcomplex": 2473,
      "org": 2474,
      "¹´": 2475,
      "Ġleft": 2476,
      "Ġstudies": 2477,
      "Ġmaintain": 2478,
      "iple": 2479,
      "Ġeff": 2480,
      "Ġensure": 2481,
      "ãģ¦": 2482,
      "ification": 2483,
      "ãģ§": 2484,
      "Ġability": 2485,
      "lig": 2486,
      "Ġpressure": 2487,
      "Ġhouse": 2488,
      "alf": 2489,
      "reg": 2490,
      "val": 2491,
      "Ġwhether": 2492,
      ",\"": 2493,
      "Ġconcept": 2494,
      "ĠFl": 2495,
      "ency": 2496,
      "Ġchalleng": 2497,
      "à¸£à¸°": 2498,
      "Ġbenefits": 2499,
      "Ġdu": 2500,
      "Ġabove": 2501,
      "Ġpolic": 2502,
      "Ġfall": 2503,
      "ister": 2504,
      "Ð¸Ñĩ": 2505,
      "Ġevent": 2506,
      "osis": 2507,
      "li": 2508,
      "Ġrecomm": 2509,
      "Ġfactors": 2510,
      "yr": 2511,
      "Ġbecame": 2512,
      "filmiau": 2513,
      "Ġvalue": 2514,
      "Ġground": 2515,
      "á±Łá±": 2516,
      "Ġsun": 2517,
      "hr": 2518,
      "Ġsubject": 2519,
      "Ø§Ø±": 2520,
      "Ġfri": 2521,
      "Ġzu": 2522,
      "Ġred": 2523,
      "Ġmarket": 2524,
      "ĠIntern": 2525,
      "emic": 2526,
      "aren": 2527,
      "Ġquestions": 2528,
      "ĠÐľ": 2529,
      "Ġwind": 2530,
      "Ġtri": 2531,
      "Ġstat": 2532,
      "Ġlive": 2533,
      "Ð½Ð°": 2534,
      "elling": 2535,
      "ĠDr": 2536,
      "ches": 2537,
      "ites": 2538,
      "ready": 2539,
      "ications": 2540,
      "Ġarticle": 2541,
      "Ġmodel": 2542,
      "Ġquick": 2543,
      "Ġcity": 2544,
      "Ġavoid": 2545,
      "ĠEnglish": 2546,
      "ĠStud": 2547,
      "Ġglobal": 2548,
      "Ġexerc": 2549,
      "verage": 2550,
      "roll": 2551,
      "rict": 2552,
      "Ġinit": 2553,
      "Ġcomes": 2554,
      "Ġbar": 2555,
      "Ġresearchers": 2556,
      "hern": 2557,
      "ĠNe": 2558,
      "bo": 2559,
      "Ġflu": 2560,
      "Ġpractice": 2561,
      "ged": 2562,
      "Ñĳ": 2563,
      "Ġcoll": 2564,
      "Ġfield": 2565,
      "xim": 2566,
      "Ġhowever": 2567,
      "ening": 2568,
      "Ġengine": 2569,
      "ĠJohn": 2570,
      "ained": 2571,
      "Ġbelow": 2572,
      "Ġsimple": 2573,
      "ule": 2574,
      "ĠÑĩ": 2575,
      "ĊĊ": 2576,
      "utions": 2577,
      "anced": 2578,
      "Ġcondition": 2579,
      "aff": 2580,
      "Ġservices": 2581,
      "ĠWar": 2582,
      "ystem": 2583,
      "rem": 2584,
      "Ġclean": 2585,
      "Ġsleep": 2586,
      "Ġnever": 2587,
      "ÑĢÑĥ": 2588,
      "way": 2589,
      "Ġabs": 2590,
      "Ġsource": 2591,
      "cial": 2592,
      "ana": 2593,
      "che": 2594,
      "ĠÐŁ": 2595,
      "etimes": 2596,
      "Ġdetail": 2597,
      "ĠIm": 2598,
      "icial": 2599,
      "Ñī": 2600,
      "Ġprovides": 2601,
      "Ġsound": 2602,
      "ĠGu": 2603,
      "ww": 2604,
      "ãģĮ": 2605,
      "Ġapproach": 2606,
      "Ġcut": 2607,
      "ÙĥÙĪ": 2608,
      "Ø¯Ùĩ": 2609,
      "ĠAmerica": 2610,
      "Ġcollect": 2611,
      "ump": 2612,
      "Ġmodern": 2613,
      "Ġonline": 2614,
      "Ġsingle": 2615,
      "Ġreason": 2616,
      "elt": 2617,
      "ĠAust": 2618,
      "inks": 2619,
      "Ġfru": 2620,
      "Ġalready": 2621,
      "Ġsoft": 2622,
      "Ġdeg": 2623,
      "ift": 2624,
      "Ġphot": 2625,
      "Ð¡": 2626,
      "Ġdeveloped": 2627,
      "Ġrelationship": 2628,
      "rel": 2629,
      "Ch": 2630,
      "ĠÙĨ": 2631,
      "ĠThat": 2632,
      "ued": 2633,
      "ÐµÐ²": 2634,
      "Ġbat": 2635,
      "Ġcru": 2636,
      "gest": 2637,
      "Ġreally": 2638,
      "Ġdoct": 2639,
      "era": 2640,
      "ĠCal": 2641,
      "nder": 2642,
      "Ġauf": 2643,
      "Ġpay": 2644,
      "ÐµÐ¹": 2645,
      "ĠPar": 2646,
      "Ġsust": 2647,
      "ica": 2648,
      "Ãł": 2649,
      "Ġemot": 2650,
      "ask": 2651,
      "Ġsoil": 2652,
      "Ġmach": 2653,
      "sh": 2654,
      "Ġnational": 2655,
      "Ġstudent": 2656,
      "Ġdone": 2657,
      "Ġcreated": 2658,
      "Ġquestion": 2659,
      "ĠComp": 2660,
      "ĠGerm": 2661,
      "ĠÑĢÐ°": 2662,
      "Ġbal": 2663,
      "Ġaccording": 2664,
      "Ġport": 2665,
      "Ġtherap": 2666,
      "Ġansw": 2667,
      "Ġnature": 2668,
      "Ġce": 2669,
      "Ġmass": 2670,
      "put": 2671,
      "Ġanalysis": 2672,
      "yl": 2673,
      "Ġdrug": 2674,
      "ĠGen": 2675,
      "Ġassociated": 2676,
      "Ġseen": 2677,
      "Ġå¹´": 2678,
      "Ġlay": 2679,
      "rect": 2680,
      "Ġweight": 2681,
      "Ġhold": 2682,
      "Ġmeet": 2683,
      "Ġsurface": 2684,
      "overed": 2685,
      "ĠAss": 2686,
      "Ø§ØŃ": 2687,
      "Ġword": 2688,
      "ĠSouth": 2689,
      "Wh": 2690,
      "igen": 2691,
      "lex": 2692,
      "gar": 2693,
      "Ġpopular": 2694,
      "reng": 2695,
      "Ó©": 2696,
      "Ø¹Ùĩ": 2697,
      "Ġgroups": 2698,
      "aim": 2699,
      "ores": 2700,
      "ĠÐĲ": 2701,
      "Ġdoc": 2702,
      "Ġindic": 2703,
      "Ð¸Ñģ": 2704,
      "sk": 2705,
      "Ġfrequ": 2706,
      "Ġadult": 2707,
      "ĠDo": 2708,
      "Ġdom": 2709,
      "Ġweek": 2710,
      "Ð¸Ð²": 2711,
      "Ã¤n": 2712,
      "AS": 2713,
      "Ġinteract": 2714,
      "ĠÚ©": 2715,
      "Ġliter": 2716,
      "ĠTr": 2717,
      "Ġliving": 2718,
      "Ġindustry": 2719,
      "Ġrepl": 2720,
      "Ġtraining": 2721,
      "Ġregular": 2722,
      "Ġsize": 2723,
      "ĠReg": 2724,
      "inter": 2725,
      "Ġassess": 2726,
      "Ġparts": 2727,
      "Ġarch": 2728,
      "Ġfive": 2729,
      "vere": 2730,
      "Ġcompany": 2731,
      "Ġgreen": 2732,
      "To": 2733,
      "Ġconcern": 2734,
      "raft": 2735,
      "Ġals": 2736,
      "Ġconsidered": 2737,
      "Ð´Ð°": 2738,
      "Ġonce": 2739,
      "ĠÙģ": 2740,
      "Ġrate": 2741,
      "ball": 2742,
      "bol": 2743,
      "oph": 2744,
      "lying": 2745,
      "ÙĪØ§": 2746,
      "Ġanimals": 2747,
      "Ġincreased": 2748,
      "acks": 2749,
      "epend": 2750,
      "Ġste": 2751,
      "Ġwhite": 2752,
      "Ġenvironmental": 2753,
      "rams": 2754,
      "Ġemer": 2755,
      "Ġneeded": 2756,
      "à¸¨": 2757,
      "à¹į": 2758,
      "earch": 2759,
      "ĠWhile": 2760,
      "ĠØ´": 2761,
      "based": 2762,
      "urg": 2763,
      "Ġcontent": 2764,
      "erence": 2765,
      "Ġpurp": 2766,
      "Ġprinc": 2767,
      "iques": 2768,
      "ĠFr": 2769,
      "ections": 2770,
      "ober": 2771,
      "Ġinj": 2772,
      "erve": 2773,
      "chan": 2774,
      "ĠSu": 2775,
      "Ġparents": 2776,
      "Ġmicro": 2777,
      "astic": 2778,
      "ibr": 2779,
      "Ġinteg": 2780,
      "usion": 2781,
      "aged": 2782,
      "Ġrequired": 2783,
      "het": 2784,
      "ĠPol": 2785,
      "Ġjob": 2786,
      "ĠEr": 2787,
      "Ġrelated": 2788,
      "ivil": 2789,
      "Ġrather": 2790,
      "ĠFran": 2791,
      "Ġchemical": 2792,
      "Ġfail": 2793,
      "Ġactually": 2794,
      "Ġlab": 2795,
      "Ġvide": 2796,
      "Ġheat": 2797,
      "arr": 2798,
      "ĠCont": 2799,
      "Ø§Ø²": 2800,
      "oon": 2801,
      "aily": 2802,
      "ery": 2803,
      "icht": 2804,
      "erous": 2805,
      "ĠØ§ÙĦØ§Ø³Øª": 2806,
      "Ø§Ø¹ÙĬÙĩ": 2807,
      "Ø§ÙĬØ±Ùĩ": 2808,
      "Ġdest": 2809,
      "ĠCO": 2810,
      "Ġsite": 2811,
      "Ġist": 2812,
      "Ġnecessary": 2813,
      "Ġsent": 2814,
      "augh": 2815,
      "Ġcheck": 2816,
      "Ġeconomic": 2817,
      "Ġgas": 2818,
      "ĠNorth": 2819,
      "ufact": 2820,
      "Ġreading": 2821,
      "ID": 2822,
      "amb": 2823,
      "ĠÃ¤r": 2824,
      "Ġmental": 2825,
      "Ġmusic": 2826,
      "ublic": 2827,
      "oles": 2828,
      "eding": 2829,
      "erson": 2830,
      "Ġhon": 2831,
      "Ġincreasing": 2832,
      "Ġdiagn": 2833,
      "Ġthroughout": 2834,
      "Ġ=": 2835,
      "Ġprote": 2836,
      "Ġeither": 2837,
      "ume": 2838,
      "ĠMay": 2839,
      "inn": 2840,
      "Ġsafety": 2841,
      "uk": 2842,
      "Ġwhole": 2843,
      "Ġtar": 2844,
      "asc": 2845,
      "ĠØ¯Ø±": 2846,
      "Ġproduce": 2847,
      "Ġpublished": 2848,
      "Ð°Ñģ": 2849,
      "Ex": 2850,
      "Ġmoney": 2851,
      "Ġcauses": 2852,
      "Ġthemselves": 2853,
      "Ġbreak": 2854,
      "Ġmembers": 2855,
      "Ġcolor": 2856,
      "Ġsuper": 2857,
      "Ġdas": 2858,
      "Ġfish": 2859,
      "aced": 2860,
      "Ġeasy": 2861,
      "hing": 2862,
      "Ġlives": 2863,
      "Ġdesigned": 2864,
      "Ġstructure": 2865,
      "rown": 2866,
      "Ġdisord": 2867,
      "iction": 2868,
      "ER": 2869,
      "Ð½Ð¾": 2870,
      "Ġva": 2871,
      "Ġidentify": 2872,
      "Ġwurde": 2873,
      "Ġblack": 2874,
      "Ġprob": 2875,
      "sequ": 2876,
      "Ġidea": 2877,
      "You": 2878,
      "Ġreact": 2879,
      "ows": 2880,
      "illed": 2881,
      "Ġoil": 2882,
      "Ġstates": 2883,
      "ender": 2884,
      "Ġtaking": 2885,
      "ude": 2886,
      "ĠSchool": 2887,
      "apan": 2888,
      "Ġpriv": 2889,
      "ĠRep": 2890,
      "Ġsuff": 2891,
      "Ġdamage": 2892,
      "ences": 2893,
      "hold": 2894,
      "nov": 2895,
      "ournal": 2896,
      "Ġlink": 2897,
      "NA": 2898,
      "sch": 2899,
      "Ġles": 2900,
      "Ġpattern": 2901,
      "Ġled": 2902,
      "ronic": 2903,
      "ming": 2904,
      "Ġtaken": 2905,
      "Ġcomputer": 2906,
      "dd": 2907,
      "Ð¾Ðº": 2908,
      "Ġentire": 2909,
      "Ġsustain": 2910,
      "Ð¸Ñħ": 2911,
      "Ġfinanc": 2912,
      "ako": 2913,
      "ĠSoc": 2914,
      "Ġtemperature": 2915,
      "Ġpoll": 2916,
      "ĠII": 2917,
      "ccording": 2918,
      "Ġmonths": 2919,
      "oses": 2920,
      "Ġarg": 2921,
      "Ġobserv": 2922,
      "abet": 2923,
      "Ġfoods": 2924,
      "Ġing": 2925,
      "ese": 2926,
      "ustom": 2927,
      "ĠĊĊ": 2928,
      "Ġpath": 2929,
      "Ref": 2930,
      "Ġincludes": 2931,
      "iment": 2932,
      "rig": 2933,
      "Ġstreng": 2934,
      "mb": 2935,
      "rast": 2936,
      "Ġmethods": 2937,
      "Ġfoot": 2938,
      "Ġsense": 2939,
      "Ġtools": 2940,
      "Ġreturn": 2941,
      "On": 2942,
      "Ġevidence": 2943,
      "ensive": 2944,
      "pro": 2945,
      "Ffilmiau": 2946,
      "\":": 2947,
      "ĠÐĳ": 2948,
      "Ġri": 2949,
      "Ġstop": 2950,
      "ĠÙħÙĨ": 2951,
      "Ġfarm": 2952,
      "ript": 2953,
      "utes": 2954,
      "Ġencou": 2955,
      "ÑģÑı": 2956,
      "ĠLa": 2957,
      "onse": 2958,
      "ino": 2959,
      "Ġbehavior": 2960,
      "Ġcompan": 2961,
      "hib": 2962,
      "ĠIndia": 2963,
      "Ġharm": 2964,
      "Ġdeep": 2965,
      "ãĤ¹": 2966,
      "Ġcat": 2967,
      "Ġcannot": 2968,
      "Ġcompon": 2969,
      "ĠAct": 2970,
      "Ġbegan": 2971,
      "Ġvariety": 2972,
      "Ġconduct": 2973,
      "Ġ;": 2974,
      "Ġrev": 2975,
      "ara": 2976,
      "Ġec": 2977,
      "Ġrelig": 2978,
      "Ġspread": 2979,
      "cies": 2980,
      "Ġmeasure": 2981,
      "ÑĭÐ»": 2982,
      "cient": 2983,
      "Ġcarbon": 2984,
      "Ġenh": 2985,
      "ules": 2986,
      "Ġregion": 2987,
      "ĠDes": 2988,
      "ply": 2989,
      "ened": 2990,
      "×Ļ×": 2991,
      "Ġcompet": 2992,
      "aving": 2993,
      "Ġmor": 2994,
      "Ġsociety": 2995,
      "aling": 2996,
      "Ġtalk": 2997,
      "Ġbacter": 2998,
      "ĠfÃ¼r": 2999,
      "Ġmeaning": 3000,
      "Ġcontact": 3001,
      "Ø§Ùĩ": 3002,
      "Ġelectric": 3003,
      "Ġoffer": 3004,
      "Ġpie": 3005,
      "ĠHer": 3006,
      "Ġdeb": 3007,
      "Ġcaused": 3008,
      "ĠDep": 3009,
      "Ġlif": 3010,
      "Ġap": 3011,
      "Ġallows": 3012,
      "eration": 3013,
      "Ġservice": 3014,
      "ĠCo": 3015,
      "icles": 3016,
      "lands": 3017,
      "ĠEarth": 3018,
      "itation": 3019,
      "Ġfire": 3020,
      "Ġaction": 3021,
      "Ġwebs": 3022,
      "__": 3023,
      "Ġever": 3024,
      "ãĥ¼ãĥ": 3025,
      "ĠPe": 3026,
      "Ġperformance": 3027,
      "minist": 3028,
      "oor": 3029,
      "Ġfat": 3030,
      "Ġthought": 3031,
      "Ġprec": 3032,
      "ĠPer": 3033,
      "Ġrights": 3034,
      "ĠÑħ": 3035,
      "à¸ģà¸²à¸£": 3036,
      "light": 3037,
      "med": 3038,
      "Ġpolitical": 3039,
      "Ġpositive": 3040,
      "à¸²à¸Ļ": 3041,
      "aches": 3042,
      "ĠAfter": 3043,
      "pid": 3044,
      "rim": 3045,
      "Ġface": 3046,
      "Ġunique": 3047,
      "istics": 3048,
      "Ġsafe": 3049,
      "ging": 3050,
      "Ġhours": 3051,
      "Ġlonger": 3052,
      "hel": 3053,
      "iency": 3054,
      "Ġfem": 3055,
      "Ġshows": 3056,
      "Ġarr": 3057,
      "ãģª": 3058,
      "Ġmanufact": 3059,
      "Ġrecent": 3060,
      "ta": 3061,
      "Ġcop": 3062,
      "äº": 3063,
      "Ġ||": 3064,
      "Ġbuilt": 3065,
      "itor": 3066,
      "rior": 3067,
      "ĠÐµ": 3068,
      "à¸²à¸ĩ": 3069,
      "Ġalmost": 3070,
      "ille": 3071,
      "ĠYour": 3072,
      "Ġbur": 3073,
      "Ġcritical": 3074,
      "Ġeat": 3075,
      "Ġbring": 3076,
      "ulations": 3077,
      "à¹ĥà¸Ļ": 3078,
      "Ġcompl": 3079,
      "artment": 3080,
      "Ġaf": 3081,
      "Ġsat": 3082,
      "Ø®": 3083,
      "ÙħØ±": 3084,
      "ĠQu": 3085,
      "ads": 3086,
      "Ġaware": 3087,
      "uz": 3088,
      "Ġparticularly": 3089,
      "Ġwaste": 3090,
      "//": 3091,
      "Ġculture": 3092,
      "Ġhyd": 3093,
      "Ġkids": 3094,
      "Ġsex": 3095,
      "Ġwild": 3096,
      "umb": 3097,
      "Ġdaily": 3098,
      "Ġpsych": 3099,
      "iam": 3100,
      "Ġcame": 3101,
      "pe": 3102,
      "istance": 3103,
      "ĠAustral": 3104,
      "Ġtell": 3105,
      "Ġevents": 3106,
      "Ġschools": 3107,
      "Ġetc": 3108,
      "ĠDie": 3109,
      "Ġhalf": 3110,
      "ãĤĮ": 3111,
      "iddle": 3112,
      "×¢": 3113,
      "ban": 3114,
      "Ġsources": 3115,
      "rs": 3116,
      "like": 3117,
      "ricult": 3118,
      "Ġuses": 3119,
      "hood": 3120,
      "Ġthreat": 3121,
      "Ġitself": 3122,
      "osing": 3123,
      "ropri": 3124,
      "Ġattention": 3125,
      "Ġsubst": 3126,
      "Ã¸": 3127,
      "Ġir": 3128,
      "ĠNo": 3129,
      "Ġwid": 3130,
      "Ġtarget": 3131,
      "erences": 3132,
      "Ġprevious": 3133,
      "Ġtraditional": 3134,
      "Ġsepar": 3135,
      "Ġnetwork": 3136,
      "ĠHist": 3137,
      "Øµ": 3138,
      "Ġgan": 3139,
      "Ġtotal": 3140,
      "ĠØ®": 3141,
      "Ġmedia": 3142,
      "ĠBr": 3143,
      "lich": 3144,
      "Ġimplement": 3145,
      "iÃ³n": 3146,
      "Ġdeveloping": 3147,
      "inary": 3148,
      "mon": 3149,
      "Ġterms": 3150,
      "itary": 3151,
      "Ġbab": 3152,
      "rial": 3153,
      "room": 3154,
      "Ġgrowing": 3155,
      "ĠYork": 3156,
      "çĶ": 3157,
      "duc": 3158,
      "Ġfram": 3159,
      "verse": 3160,
      "Ġshare": 3161,
      "ha": 3162,
      "Ġjo": 3163,
      "Ġsurv": 3164,
      "âĢĵ": 3165,
      "Ġsch": 3166,
      "Ġposition": 3167,
      "Ġtook": 3168,
      "Ġamb": 3169,
      "Ġvari": 3170,
      "Ð¾Ð±": 3171,
      "à¸²à¸¢": 3172,
      "Ġgard": 3173,
      "Ġpatient": 3174,
      "Ġdigital": 3175,
      "alu": 3176,
      "Ġaus": 3177,
      "ĠGl": 3178,
      "Ġregard": 3179,
      "Ġvit": 3180,
      "ken": 3181,
      "issions": 3182,
      "://": 3183,
      "Ġfig": 3184,
      "Ø§Ø¨": 3185,
      "amed": 3186,
      "ĠInstit": 3187,
      "á±ļ": 3188,
      "ÐµÐ»ÑĮ": 3189,
      "atives": 3190,
      "ĠMe": 3191,
      "Ġsix": 3192,
      "Ġmechan": 3193,
      "Ġsett": 3194,
      "à¹Ģà¸Ľ": 3195,
      "ĠState": 3196,
      "ko": 3197,
      "Ġemb": 3198,
      "ĠJapan": 3199,
      "mar": 3200,
      "ography": 3201,
      "Ġyet": 3202,
      "Ġsecurity": 3203,
      "Ġminim": 3204,
      "Ġfinancial": 3205,
      "Ø¬Ø±": 3206,
      "fort": 3207,
      "ched": 3208,
      "ĠÑģÑĤ": 3209,
      "ground": 3210,
      "ĠÐł": 3211,
      "Ġmatter": 3212,
      "à¥": 3213,
      "Ġleading": 3214,
      "ÑĥÐ»": 3215,
      "orks": 3216,
      "Ġseries": 3217,
      "ES": 3218,
      "Ġseason": 3219,
      "Ġvirus": 3220,
      "Ġlove": 3221,
      "ĠHis": 3222,
      "Ġanaly": 3223,
      "Ġheav": 3224,
      "Ġvacc": 3225,
      "Ġcustom": 3226,
      "Ġsomeone": 3227,
      "AR": 3228,
      "ĠBritish": 3229,
      "fect": 3230,
      "Ġgetting": 3231,
      "ãĥ»": 3232,
      "lied": 3233,
      "Ġcamp": 3234,
      "Ġprograms": 3235,
      "×ķ": 3236,
      "ership": 3237,
      "Ġmovement": 3238,
      "Ġom": 3239,
      "Ġdoesn": 3240,
      "isions": 3241,
      "Ġdiseases": 3242,
      "Ġvisit": 3243,
      "uge": 3244,
      "Ġresponse": 3245,
      "Ø·ÙĦ": 3246,
      "la": 3247,
      "dom": 3248,
      "ls": 3249,
      "Ġachieve": 3250,
      "Ġthing": 3251,
      "ĠPart": 3252,
      "rage": 3253,
      "Ġsuccessful": 3254,
      "Ġstandard": 3255,
      "ĠArt": 3256,
      "Ġbill": 3257,
      "erb": 3258,
      "Ġreview": 3259,
      "Ġissue": 3260,
      "Ð¸Ð·": 3261,
      "ĠInt": 3262,
      "ĠJah": 3263,
      "Ġremain": 3264,
      "Ġcompanies": 3265,
      "estern": 3266,
      "Ġaim": 3267,
      "Ġveget": 3268,
      "ugust": 3269,
      "Ġviol": 3270,
      "Ġinvolved": 3271,
      "Ġdoing": 3272,
      "ctions": 3273,
      "ĠÃł": 3274,
      "vey": 3275,
      "Ġsolar": 3276,
      "Ø¬Ø±Ùĩ": 3277,
      "Ġremov": 3278,
      "Ø±Ø¹Ùĩ": 3279,
      "Ġbasic": 3280,
      "ĠPre": 3281,
      "Ġinternational": 3282,
      "cks": 3283,
      "Ġnormal": 3284,
      "iar": 3285,
      "lin": 3286,
      "icine": 3287,
      "my": 3288,
      "Ġwritten": 3289,
      "Ġcommunities": 3290,
      "Ġffilm": 3291,
      "Ġdraw": 3292,
      "Ġsimply": 3293,
      "itted": 3294,
      "Ġeine": 3295,
      "Ġconsist": 3296,
      "uck": 3297,
      "å¤": 3298,
      "Ġox": 3299,
      "Ġeye": 3300,
      "Ġupp": 3301,
      "ĠØ¨ÙĬ": 3302,
      "Ġideas": 3303,
      "Ġupon": 3304,
      "Ġlooking": 3305,
      "Ġclose": 3306,
      "Ġteeth": 3307,
      "Ġlack": 3308,
      "Ġcomplete": 3309,
      "ĠResearch": 3310,
      "Ġfa": 3311,
      "Ġscientists": 3312,
      "osition": 3313,
      "ĠJan": 3314,
      "ÐºÐ°": 3315,
      "ĠAnt": 3316,
      "ĠÐ¾Ð±": 3317,
      "osure": 3318,
      "Ġcontinue": 3319,
      "Ġcrucial": 3320,
      "Ġeasily": 3321,
      "Ġsometimes": 3322,
      "ĠAI": 3323,
      "Ġaverage": 3324,
      "Ġmultiple": 3325,
      "AT": 3326,
      "Ġlands": 3327,
      "joy": 3328,
      "asons": 3329,
      "ĠMin": 3330,
      "ief": 3331,
      "ros": 3332,
      "Ġorigin": 3333,
      "que": 3334,
      "Ð¸ÑĢ": 3335,
      "Ġsal": 3336,
      "Ġoverall": 3337,
      "Ġtur": 3338,
      "ĠMon": 3339,
      "Ġserious": 3340,
      "ey": 3341,
      "Ġrout": 3342,
      "ho": 3343,
      "ĠMus": 3344,
      "Ġstay": 3345,
      "ĠApp": 3346,
      "Ġteachers": 3347,
      "ĠCons": 3348,
      "co": 3349,
      "ĠÙĩÙĬ": 3350,
      "Ġstarted": 3351,
      "à¸²à¸ģ": 3352,
      "Ġwood": 3353,
      "Ġaspect": 3354,
      "ado": 3355,
      "Ġdevices": 3356,
      "Ġoutside": 3357,
      "Ġrefer": 3358,
      "empt": 3359,
      "Ġquickly": 3360,
      "Ġprovided": 3361,
      "omet": 3362,
      "Ġchallenges": 3363,
      "ĠMany": 3364,
      "new": 3365,
      "Ġforms": 3366,
      "Ġcorrect": 3367,
      "Ġhor": 3368,
      "Ġselect": 3369,
      "Ġaccur": 3370,
      "Ġtravel": 3371,
      "ĠRec": 3372,
      "Ġhy": 3373,
      "Ġcommunication": 3374,
      "ĠCount": 3375,
      "overy": 3376,
      "Ġtakes": 3377,
      "Ġuna": 3378,
      "hens": 3379,
      "Ġdefin": 3380,
      "ervation": 3381,
      "Ġlog": 3382,
      "ĠSec": 3383,
      "Ù¾": 3384,
      "men": 3385,
      "Ġshown": 3386,
      "ĠÙĩÙĬØ§": 3387,
      "term": 3388,
      "wydd": 3389,
      "ĠWill": 3390,
      "Ġprep": 3391,
      "aj": 3392,
      "ĠEurope": 3393,
      "Ġcreating": 3394,
      "Ġfilm": 3395,
      "ĠBo": 3396,
      "ext": 3397,
      "pril": 3398,
      "arily": 3399,
      "unt": 3400,
      "Ġclaim": 3401,
      "Ġtrue": 3402,
      "Ġprogress": 3403,
      "Ġdry": 3404,
      "ĠKing": 3405,
      "Ġapplications": 3406,
      "Ġimage": 3407,
      "Ġprimary": 3408,
      "ĠEd": 3409,
      "zen": 3410,
      "But": 3411,
      "Ġguid": 3412,
      "iren": 3413,
      "à¹ģà¸¥": 3414,
      "Ġexercise": 3415,
      "Ġbelieve": 3416,
      "Ġgreater": 3417,
      "ologies": 3418,
      "ĠAg": 3419,
      "Ġcapt": 3420,
      "Ġvideo": 3421,
      "ĠGr": 3422,
      ".)": 3423,
      "ĠScience": 3424,
      "ĠÐĵ": 3425,
      "Ġprofessional": 3426,
      "Ġsoftware": 3427,
      "abetes": 3428,
      "ĠChina": 3429,
      "Ġwrite": 3430,
      "ÙĪÙħ": 3431,
      "atur": 3432,
      "ĠÑį": 3433,
      "Ġpict": 3434,
      "Ġgame": 3435,
      "ida": 3436,
      "Ġdemon": 3437,
      "alls": 3438,
      "Ġaud": 3439,
      "Ġdang": 3440,
      "omb": 3441,
      "Ġtypically": 3442,
      "Ġcontribut": 3443,
      "Ġreflect": 3444,
      "Ġproduced": 3445,
      "Ġsich": 3446,
      "Ġfeed": 3447,
      "Ġdispl": 3448,
      "Ġtechniques": 3449,
      "ĠÑĦ": 3450,
      "Ġmagn": 3451,
      "Ġprint": 3452,
      "ÑĭÐ½": 3453,
      "Ġanimal": 3454,
      "rench": 3455,
      "ÑĺÐµ": 3456,
      "iot": 3457,
      "Ġimportance": 3458,
      "Ã¥n": 3459,
      "Ø¶": 3460,
      "ius": 3461,
      "Ġog": 3462,
      "Ġpractices": 3463,
      "Ġmess": 3464,
      "Ġcover": 3465,
      "ĠHere": 3466,
      "ties": 3467,
      "Ġseem": 3468,
      "Ġtend": 3469,
      "ÐŁ": 3470,
      "Ġful": 3471,
      "Ġpoor": 3472,
      "itect": 3473,
      "Ġequip": 3474,
      "Ġinside": 3475,
      "care": 3476,
      "son": 3477,
      "Ġda": 3478,
      "\",": 3479,
      "Ġtowards": 3480,
      "Ġrespect": 3481,
      "Ġaccept": 3482,
      "Ġtree": 3483,
      "Ġx": 3484,
      "mit": 3485,
      "ico": 3486,
      "Ġsil": 3487,
      "ÑĥÑĢ": 3488,
      "Ġforest": 3489,
      "Ġtax": 3490,
      "Ġfeatures": 3491,
      "Ġfast": 3492,
      "aries": 3493,
      "Ġast": 3494,
      "æĹ": 3495,
      "Ġeth": 3496,
      "Ġaff": 3497,
      "Ġindepend": 3498,
      "Ġdifference": 3499,
      "Ġsevere": 3500,
      "rought": 3501,
      "Ġhumans": 3502,
      "ony": 3503,
      "ÑĤÐ°": 3504,
      "ÑĨÐ¸": 3505,
      "Ġveh": 3506,
      "Ġtransport": 3507,
      "Ġadapt": 3508,
      "Ġaltern": 3509,
      "Ġwarm": 3510,
      "berg": 3511,
      "Ġoriginal": 3512,
      "Ġnight": 3513,
      "Ġlat": 3514,
      "ĠÐ»": 3515,
      "Ġcoun": 3516,
      "Ġtrees": 3517,
      "Ġsus": 3518,
      "Ġbit": 3519,
      "ension": 3520,
      "Ġenjoy": 3521,
      "Ġpoints": 3522,
      "ĠÐ³Ð¾Ð´Ð°": 3523,
      "oming": 3524,
      "Ġdetermine": 3525,
      "Ġextra": 3526,
      "Ã¦": 3527,
      "Ġdocument": 3528,
      "Ġblock": 3529,
      "oes": 3530,
      "Ġautom": 3531,
      "Ġdrink": 3532,
      "Ġtiss": 3533,
      "rition": 3534,
      "Ġinfl": 3535,
      "ald": 3536,
      "ederal": 3537,
      "idge": 3538,
      "ische": 3539,
      "uries": 3540,
      "ĠØ¢": 3541,
      "ige": 3542,
      "Ã¥r": 3543,
      "ops": 3544,
      "Ġgenerally": 3545,
      "ÛĮÚ©": 3546,
      "atively": 3547,
      "Ġdoctor": 3548,
      "Ã¤nd": 3549,
      "Ġ...": 3550,
      "Ġbehind": 3551,
      "Ġslow": 3552,
      "Ġsupply": 3553,
      "Ġhot": 3554,
      "Ġproviding": 3555,
      "ĠJu": 3556,
      "ellow": 3557,
      "Ġbooks": 3558,
      "Ġappropri": 3559,
      "gn": 3560,
      "Ġrequires": 3561,
      "ĠMore": 3562,
      "Ġcultural": 3563,
      "ĠUs": 3564,
      "Ġlate": 3565,
      "á±®": 3566,
      "Ġearth": 3567,
      "Ġcard": 3568,
      "Ġ+": 3569,
      "Ġprior": 3570,
      "ÛĮÙĦ": 3571,
      "ancy": 3572,
      "Ġevalu": 3573,
      "ĠPres": 3574,
      "Ġprocesses": 3575,
      "à¸¶": 3576,
      "Ġpage": 3577,
      "One": 3578,
      "ĠAc": 3579,
      "IS": 3580,
      "attle": 3581,
      "Ġson": 3582,
      "Ġnumbers": 3583,
      "Ð¸ÑģÑĤ": 3584,
      "ns": 3585,
      "Ġwide": 3586,
      "ulate": 3587,
      "iber": 3588,
      "aly": 3589,
      "Ġbreat": 3590,
      "ĠÐĿ": 3591,
      "ĠÐ¿Ð¾": 3592,
      "Ġinfection": 3593,
      "Ð³Ð°": 3594,
      "×¢×": 3595,
      "Ġproced": 3596,
      "Ġthinking": 3597,
      "Ġelements": 3598,
      "ĠÐ¸Ð·": 3599,
      "Ġhabit": 3600,
      "Ġinstead": 3601,
      "Ġhighly": 3602,
      "Ġactive": 3603,
      "Ġsqu": 3604,
      "Ġfinal": 3605,
      "ande": 3606,
      "ĠWest": 3607,
      "ãĥ«": 3608,
      "ptember": 3609,
      "ĠĠĠĠĠĠĠĠ": 3610,
      "orpor": 3611,
      "ohol": 3612,
      "Ġfeet": 3613,
      "Ġattack": 3614,
      "Ġincluded": 3615,
      "Ġinnov": 3616,
      "Ġbad": 3617,
      "avor": 3618,
      "ĠTra": 3619,
      "Ġexpress": 3620,
      "ÐµÑģ": 3621,
      "Ġcele": 3622,
      "Ġwalk": 3623,
      "ĠÐĶ": 3624,
      "rated": 3625,
      "ounds": 3626,
      "Ġinstall": 3627,
      "Ġweb": 3628,
      "pite": 3629,
      "Ð°Ð»ÑĮ": 3630,
      "He": 3631,
      "ĠNot": 3632,
      "Ġinvestig": 3633,
      "Ġcompared": 3634,
      "Ġadded": 3635,
      "Ġbacteria": 3636,
      "ben": 3637,
      "ribute": 3638,
      "Ġinstit": 3639,
      "icated": 3640,
      "bor": 3641,
      "vention": 3642,
      "ĠSw": 3643,
      "vert": 3644,
      "Ġteaching": 3645,
      "Ġdirectly": 3646,
      "izations": 3647,
      "Ġwebsite": 3648,
      "ĠMost": 3649,
      "ãĤ¤": 3650,
      "Ġprojects": 3651,
      "Ġpan": 3652,
      "Ġmom": 3653,
      "ĠEduc": 3654,
      "ĠÐ¾ÑĤ": 3655,
      "Ġdiv": 3656,
      "ĠSm": 3657,
      "Ġreve": 3658,
      "Ġziren": 3659,
      "Ġsn": 3660,
      "Ġconnect": 3661,
      "ĠAugust": 3662,
      "Ġadditional": 3663,
      "ĠÐ¢": 3664,
      "Ġrele": 3665,
      "Ð¾Ð·": 3666,
      "ror": 3667,
      "Ġprotection": 3668,
      "Ġdecre": 3669,
      "Ġacid": 3670,
      "Ġanswer": 3671,
      "Ġbroad": 3672,
      "gency": 3673,
      "Ġscientific": 3674,
      "Ġinsp": 3675,
      "Ġyourself": 3676,
      "ĠEuropean": 3677,
      "Ġhtt": 3678,
      "eed": 3679,
      "ribution": 3680,
      "iforn": 3681,
      "Ġmother": 3682,
      "Ð½Ð¾Ð¹": 3683,
      "ĠHar": 3684,
      "back": 3685,
      "ula": 3686,
      "Ġcentral": 3687,
      "cohol": 3688,
      "Ġpack": 3689,
      "och": 3690,
      "ĠChar": 3691,
      "izes": 3692,
      "Ġimmedi": 3693,
      "ching": 3694,
      "uth": 3695,
      "ĠDay": 3696,
      "Ġcou": 3697,
      "Ġreported": 3698,
      "ĠVer": 3699,
      "ached": 3700,
      "itis": 3701,
      "Ġconcent": 3702,
      "ux": 3703,
      "Ġcosts": 3704,
      "irit": 3705,
      "Ġcomplet": 3706,
      "Ġcit": 3707,
      "Ġeating": 3708,
      "IN": 3709,
      "Ø¬Ùħ": 3710,
      "Ã¤t": 3711,
      "ĠLear": 3712,
      "eks": 3713,
      "ipl": 3714,
      "Ġclos": 3715,
      "Ġgoal": 3716,
      "oud": 3717,
      "ellig": 3718,
      "à¸²à¸¡": 3719,
      "ĠBar": 3720,
      "ete": 3721,
      "Ġgain": 3722,
      "Ġbott": 3723,
      "ĠEm": 3724,
      "ĠRuss": 3725,
      "Ġsugar": 3726,
      "ying": 3727,
      "Ð°Ð¹": 3728,
      "ecause": 3729,
      "Ġthird": 3730,
      "Ġdou": 3731,
      "åħ": 3732,
      "ternal": 3733,
      "Ġcivil": 3734,
      "Ġlarger": 3735,
      "So": 3736,
      "ira": 3737,
      "Ġbehavi": 3738,
      "Ġang": 3739,
      "ĠØ±": 3740,
      "Ġexplore": 3741,
      "âĢĿ.": 3742,
      "Ġexpect": 3743,
      "Ġtherapy": 3744,
      "Ġleaves": 3745,
      "Ġtit": 3746,
      "Ġfamilies": 3747,
      "ias": 3748,
      "vest": 3749,
      "tery": 3750,
      "Ġones": 3751,
      "Ġsymbol": 3752,
      "idents": 3753,
      "Ġsea": 3754,
      "Ġminutes": 3755,
      "Ġestablished": 3756,
      "water": 3757,
      "Ġhands": 3758,
      "ungs": 3759,
      "ĠÑĢÐµ": 3760,
      "Ġforce": 3761,
      "Ġadults": 3762,
      "imin": 3763,
      "Ġclin": 3764,
      "time": 3765,
      "Ġstor": 3766,
      "onom": 3767,
      "á±ļá±": 3768,
      "where": 3769,
      "bl": 3770,
      "yc": 3771,
      "Ġbeaut": 3772,
      "Ġtesting": 3773,
      "ÙĦÙī": 3774,
      "Ġstru": 3775,
      "Ġmonth": 3776,
      "Ġquite": 3777,
      "à¹ģà¸¥à¸°": 3778,
      "ÙĨØ¯": 3779,
      "Ġpurpose": 3780,
      "Ġdecision": 3781,
      "Ġapplication": 3782,
      "Ġcross": 3783,
      "Ġpolicy": 3784,
      "Ġrob": 3785,
      "×Ĳ": 3786,
      "Ġnation": 3787,
      "ij": 3788,
      "Ġfront": 3789,
      "Ð¾Ð¿": 3790,
      "Ġancient": 3791,
      "Ġdemand": 3792,
      "ĠFrom": 3793,
      "ĠChild": 3794,
      "ĠOf": 3795,
      "Ġago": 3796,
      "ungen": 3797,
      "itable": 3798,
      "Ġspeak": 3799,
      "rogen": 3800,
      "lear": 3801,
      "Ġwon": 3802,
      "Ġimpl": 3803,
      "Ġconstruction": 3804,
      "Ġattempt": 3805,
      "ĠIndian": 3806,
      "Ġsold": 3807,
      "yond": 3808,
      "Ġquant": 3809,
      "ãĥª": 3810,
      "Ġreach": 3811,
      "Ġadvant": 3812,
      "uary": 3813,
      "While": 3814,
      "ero": 3815,
      "za": 3816,
      "ĠInstitute": 3817,
      "cil": 3818,
      "Ġcred": 3819,
      "Ġuseful": 3820,
      "Ġanx": 3821,
      "Ġprotein": 3822,
      "Ġà¤": 3823,
      "Ġnews": 3824,
      "ength": 3825,
      "Ġefficient": 3826,
      "Ġinfluence": 3827,
      "Ġseek": 3828,
      "Ġcool": 3829,
      "ĠØ§ÙĦÙĦÙī": 3830,
      "lection": 3831,
      "ĠApril": 3832,
      "ĠJew": 3833,
      "Ġequipment": 3834,
      "Ġsolution": 3835,
      "Ġheld": 3836,
      "enge": 3837,
      "Ġnegative": 3838,
      "Ġdemonstr": 3839,
      "å®": 3840,
      "itude": 3841,
      "wh": 3842,
      "Ġnutri": 3843,
      "Ġutil": 3844,
      "come": 3845,
      "Ġvisual": 3846,
      "ĠInternational": 3847,
      "Ġbase": 3848,
      "aul": 3849,
      "ona": 3850,
      "ett": 3851,
      "Ġsurround": 3852,
      "urt": 3853,
      "ĠÛ±": 3854,
      "ĠAfrica": 3855,
      "Ġchoose": 3856,
      "These": 3857,
      "Ġemp": 3858,
      "Ġcontains": 3859,
      "des": 3860,
      "Ġsituation": 3861,
      "Ġhost": 3862,
      "equ": 3863,
      "lt": 3864,
      "Ġvalues": 3865,
      "Ġusers": 3866,
      "Ġestim": 3867,
      "à¸·à¹Ī": 3868,
      "Ġbeginning": 3869,
      "Ð½Ð¸": 3870,
      "cean": 3871,
      "\".": 3872,
      "ĠCenter": 3873,
      "ÐµÑģÑĤ": 3874,
      "ĠTechn": 3875,
      "ifornia": 3876,
      "Ġborn": 3877,
      "ĠÐŀ": 3878,
      "Ġoffers": 3879,
      "ĠØ§ÙĦØ¯": 3880,
      "Ġep": 3881,
      "Ġcapac": 3882,
      "Ġagricult": 3883,
      "just": 3884,
      "ovember": 3885,
      "Ġult": 3886,
      "ham": 3887,
      "Ġbirth": 3888,
      "Ġdark": 3889,
      "Ġspeed": 3890,
      "Ġpet": 3891,
      "Ġtransform": 3892,
      "Ð»Ñı": 3893,
      "rate": 3894,
      "Ġthous": 3895,
      "Ġeyes": 3896,
      "Ġpromot": 3897,
      "Ġris": 3898,
      "Ġsteps": 3899,
      "Ġexact": 3900,
      "ĠØ¨Øª": 3901,
      "Ġexamples": 3902,
      "odies": 3903,
      "ÙĤØ·": 3904,
      "ider": 3905,
      "ĠØ¨Ø§ÙĦ": 3906,
      "ĠÐ·Ð°": 3907,
      "va": 3908,
      "Ġlimited": 3909,
      "Ġoptim": 3910,
      "Ġearl": 3911,
      "ĠMarch": 3912,
      "Ġdat": 3913,
      "Ġbecomes": 3914,
      "rab": 3915,
      "istry": 3916,
      "leg": 3917,
      "resh": 3918,
      "Ġprobably": 3919,
      "Ġlocated": 3920,
      "aft": 3921,
      "Ar": 3922,
      "Ġmix": 3923,
      "isms": 3924,
      "anks": 3925,
      "Ġadop": 3926,
      "lar": 3927,
      "ĠØ§ÙĦØ±": 3928,
      "Ġadminist": 3929,
      "oke": 3930,
      "Ġsearch": 3931,
      "Ġtherefore": 3932,
      "inct": 3933,
      "Ġacad": 3934,
      "Un": 3935,
      "ÙĩØ§ÛĮ": 3936,
      "Ġstyle": 3937,
      "Ġcontinu": 3938,
      "Pro": 3939,
      "Ġfriends": 3940,
      "æĹ¥": 3941,
      "Ġtheory": 3942,
      "åı": 3943,
      "ields": 3944,
      "nown": 3945,
      "Ġdisp": 3946,
      "Ġqual": 3947,
      "Ġtests": 3948,
      "ests": 3949,
      "ios": 3950,
      "Ġgradu": 3951,
      "âĢ¢": 3952,
      "ÐµÑģÐº": 3953,
      "ĠØ§ÙĦÙĨ": 3954,
      "irm": 3955,
      "cles": 3956,
      "Ø§Ùħ": 3957,
      "Ġdiabetes": 3958,
      "ama": 3959,
      "Ġtrack": 3960,
      "Ġstrategies": 3961,
      "Ġimages": 3962,
      "Ø§Ø¡": 3963,
      "Ġstage": 3964,
      "Ġdevice": 3965,
      "rik": 3966,
      "ription": 3967,
      "ØĮ": 3968,
      "Ġwa": 3969,
      "åŃ": 3970,
      "Ġfight": 3971,
      "far": 3972,
      "Ð¸Ð´": 3973,
      "fe": 3974,
      "Ø§ÙĨØ²": 3975,
      "aur": 3976,
      "iers": 3977,
      "Ġegg": 3978,
      "Ġtown": 3979,
      "uro": 3980,
      "Ġresponsible": 3981,
      "icate": 3982,
      "Ġeveryone": 3983,
      "Ġten": 3984,
      "Ġlegal": 3985,
      "ĠFrench": 3986,
      "ums": 3987,
      "Ġweeks": 3988,
      "Ġcold": 3989,
      "Ã±": 3990,
      "ĠAfrican": 3991,
      "Ġze": 3992,
      "Ġsoon": 3993,
      "Ġtable": 3994,
      "ords": 3995,
      "Ġguide": 3996,
      "Ġappropriate": 3997,
      "Ġimmune": 3998,
      "ÙĥÙĪÙĨ": 3999,
      "life": 4000,
      "Ġsigns": 4001,
      "åĲ": 4002,
      "Ø¬Ø±Ùħ": 4003,
      "Ġinterp": 4004,
      "ãĤ¢": 4005,
      "aste": 4006,
      "ĠSk": 4007,
      "Ġestablish": 4008,
      "En": 4009,
      "Ø·ÙĦØ¹": 4010,
      "Ġuser": 4011,
      "ashing": 4012,
      "Ġefforts": 4013,
      "ÙĬØ§ØŃ": 4014,
      "ĠØ§ÙĦØ³ÙħØ§ÙĪÙĬÙĩ": 4015,
      "ĠØ§ÙĦÙħØ¬Ø±Ùĩ": 4016,
      "ĠØ§ÙĦØ³Ø§Ø¹ÙĬÙĩ": 4017,
      "ĠØ§ÙĦØ¯Ø§ÙĬØ±Ùĩ": 4018,
      "Ø§ÙĨØ²ÙĬØ§ØŃ": 4019,
      "ĠØ§ÙĦÙħØ³Øª": 4020,
      "Ġweather": 4021,
      "ĠØ³ÙħØ§ÙĪ": 4022,
      "ĠØ§ÙĦÙħØ³ØªÙĤÙĬÙħ": 4023,
      "ĠØ§ÙĦÙħØ·ÙĦØ¹": 4024,
      "ĠØ³ÙħØ§ÙĪÙī": 4025,
      "Ġrich": 4026,
      "Ġbis": 4027,
      "ÙĤÙĬÙħØ©": 4028,
      "ĠØ§ÙĦØ³ÙħØ§ÙĪÙī": 4029,
      "AN": 4030,
      "Ġmemory": 4031,
      "ĠØ§ÙĦØ§Ø³ØªÙĪØ§": 4032,
      "Ġcollabor": 4033,
      "ĠJes": 4034,
      "Ġisn": 4035,
      "Ġworkers": 4036,
      "ĠSte": 4037,
      "ech": 4038,
      "Ġplaces": 4039,
      "ãĥĪ": 4040,
      "ĠCalifornia": 4041,
      "Ġlargest": 4042,
      "iles": 4043,
      "Ġrespond": 4044,
      "Ġunc": 4045,
      "ÙĪØ±": 4046,
      "ĠBer": 4047,
      "ev": 4048,
      "Ġopportunities": 4049,
      "ĠØ¨Ùĩ": 4050,
      "ĠPark": 4051,
      "asks": 4052,
      "eld": 4053,
      "ria": 4054,
      "Ġreasons": 4055,
      "Ġfit": 4056,
      "ED": 4057,
      "Ġrates": 4058,
      "ago": 4059,
      "ÙĩØ§": 4060,
      "sect": 4061,
      "Ġoptions": 4062,
      "Ġcommonly": 4063,
      "Ġbenefit": 4064,
      "load": 4065,
      "ãģĭ": 4066,
      "Ġplat": 4067,
      "At": 4068,
      "ĠØ§ÙĦÙģ": 4069,
      "Ġopportunity": 4070,
      "Ġremains": 4071,
      "Ġaffected": 4072,
      "ĠOur": 4073,
      "Ġlabor": 4074,
      "ĠIS": 4075,
      "Ġmachine": 4076,
      "ĠRed": 4077,
      "reme": 4078,
      "AC": 4079,
      "ĠSeptember": 4080,
      "Ġproperties": 4081,
      "Ð»Ð¸": 4082,
      "ĠOther": 4083,
      "Ġshape": 4084,
      "Ġmodels": 4085,
      "Ġfol": 4086,
      "Ġcarry": 4087,
      "Ġlost": 4088,
      "set": 4089,
      "Ġ]": 4090,
      "Ġelectr": 4091,
      "Ġcode": 4092,
      "orb": 4093,
      "oma": 4094,
      "Ġthus": 4095,
      "Ġsummer": 4096,
      "Ġexperiences": 4097,
      "Ãº": 4098,
      "rick": 4099,
      "cape": 4100,
      "off": 4101,
      "Ġhan": 4102,
      "chen": 4103,
      "ĠDav": 4104,
      "ĠFirst": 4105,
      "Ġbra": 4106,
      "Ġscreen": 4107,
      "Ġrapid": 4108,
      "Ã§": 4109,
      "Ġfuel": 4110,
      "ãģ£": 4111,
      "Ġcomponents": 4112,
      "rat": 4113,
      "uit": 4114,
      "Ð°Ð´": 4115,
      "Ġbalance": 4116,
      "ilit": 4117,
      "isation": 4118,
      "ilos": 4119,
      "Ġcam": 4120,
      "ÐĴ": 4121,
      "Ġmeasures": 4122,
      "ĠVal": 4123,
      "Ġord": 4124,
      "Ġmob": 4125,
      "ĠÃ¶": 4126,
      "Ġteacher": 4127,
      "Ġpowerful": 4128,
      "ype": 4129,
      "ogen": 4130,
      "Ġofficial": 4131,
      "Ġrecommend": 4132,
      "ĠCity": 4133,
      "head": 4134,
      "rehens": 4135,
      "Ġeverything": 4136,
      "Ġcrop": 4137,
      "ena": 4138,
      "net": 4139,
      "Ð¾Ð¶": 4140,
      "ĠProf": 4141,
      "ĠAut": 4142,
      "Ġrare": 4143,
      "ĠMod": 4144,
      "illing": 4145,
      "Ġexposure": 4146,
      "gy": 4147,
      "Ġreceived": 4148,
      "ided": 4149,
      "ä½": 4150,
      "Ġbeyond": 4151,
      "ĠHigh": 4152,
      "ĠSim": 4153,
      "Ġsin": 4154,
      "Ð°Ñı": 4155,
      "wa": 4156,
      "Ġcook": 4157,
      "ĠĠĠ": 4158,
      "haps": 4159,
      "Ġmilitary": 4160,
      "Ð¾Ð»ÑĮ": 4161,
      "Ġgives": 4162,
      "ua": 4163,
      "ĠMy": 4164,
      "Ġgoals": 4165,
      "uman": 4166,
      "undred": 4167,
      "Ð³Ð¾": 4168,
      "Ð½Ð¸Ðº": 4169,
      "inese": 4170,
      "II": 4171,
      "ĠCanada": 4172,
      "ĠSan": 4173,
      "ĠOct": 4174,
      "Ġsolutions": 4175,
      "ĠTw": 4176,
      "Ġmount": 4177,
      "Ġgarden": 4178,
      "Ġsignificantly": 4179,
      "abilities": 4180,
      "ĠGerman": 4181,
      "Ġreducing": 4182,
      "ception": 4183,
      "ĠRo": 4184,
      "lim": 4185,
      "ãĤī": 4186,
      "ãĥ©": 4187,
      "ĠAng": 4188,
      "Ġinvolves": 4189,
      "ala": 4190,
      "Ã¼ber": 4191,
      "Ġnach": 4192,
      "Ð½ÑĭÐ¹": 4193,
      "Ġvia": 4194,
      "Ġproperty": 4195,
      "ĠCom": 4196,
      "IC": 4197,
      "Ġarchitect": 4198,
      "Ġsect": 4199,
      "Ġreceive": 4200,
      "Ġprivate": 4201,
      "odd": 4202,
      "gram": 4203,
      "Ġpregn": 4204,
      "Ġpatterns": 4205,
      "standing": 4206,
      "rec": 4207,
      "ĠSystem": 4208,
      "à¸ĸ": 4209,
      "Ġtechnologies": 4210,
      "ĠâĢŀ": 4211,
      "Ġcolon": 4212,
      "Ġdies": 4213,
      "Ġalcohol": 4214,
      "With": 4215,
      "ĠZe": 4216,
      "Ġswe": 4217,
      "Ġlines": 4218,
      "And": 4219,
      "Ġbaby": 4220,
      "Ġbul": 4221,
      "Ġsection": 4222,
      "ĠGra": 4223,
      "Ã²": 4224,
      "ya": 4225,
      "ĠDepartment": 4226,
      "cember": 4227,
      "fficient": 4228,
      "ĠJune": 4229,
      "Ġsie": 4230,
      "Ġperfect": 4231,
      "Ġsustainable": 4232,
      "Ġpen": 4233,
      "oration": 4234,
      "Ġrisks": 4235,
      "Ġassist": 4236,
      "gin": 4237,
      "ĠBlack": 4238,
      "Ġimag": 4239,
      "sec": 4240,
      "à¸ĭ": 4241,
      "ĠÐĺ": 4242,
      "Ġstandards": 4243,
      "hre": 4244,
      "Ġroom": 4245,
      "icip": 4246,
      "Ġmole": 4247,
      "Ġmiss": 4248,
      "ĠfrÃ¥n": 4249,
      "Ġinstru": 4250,
      "Ġcapital": 4251,
      "ford": 4252,
      "Ġgot": 4253,
      "year": 4254,
      "Ġconflic": 4255,
      "orge": 4256,
      "Ġrock": 4257,
      "ĠHol": 4258,
      "á±¤": 4259,
      "ĠAssoci": 4260,
      "Ð½Ð¾Ð³Ð¾": 4261,
      "ä»": 4262,
      "Ġolder": 4263,
      "Ġhair": 4264,
      "ĠAlthough": 4265,
      "ĠØ®Ø·": 4266,
      "Ġplanet": 4267,
      "Ġplastic": 4268,
      "ĠRiver": 4269,
      "Ġauch": 4270,
      "ON": 4271,
      "By": 4272,
      "Ġpor": 4273,
      "à¸±à¹ī": 4274,
      "aught": 4275,
      "Ġemissions": 4276,
      "Ð½ÑĭÑħ": 4277,
      "Ġlocation": 4278,
      "Ġmember": 4279,
      "ĠEngland": 4280,
      "Ġvict": 4281,
      "Ġdire": 4282,
      "ÐµÑĢÐ°": 4283,
      "iples": 4284,
      "estic": 4285,
      "ĠServ": 4286,
      "Ġillness": 4287,
      "ĠFeb": 4288,
      "ospital": 4289,
      "Ġmo": 4290,
      "Ġcurrently": 4291,
      "lor": 4292,
      "met": 4293,
      "Ġpurch": 4294,
      "ously": 4295,
      "Ġtooth": 4296,
      "olic": 4297,
      "Ġorganization": 4298,
      "wide": 4299,
      "ĠPat": 4300,
      "uments": 4301,
      "hest": 4302,
      "ĠØ§ÛĮ": 4303,
      "Ġalthough": 4304,
      "Ġextrem": 4305,
      "mission": 4306,
      "Ġdepend": 4307,
      "Ġoccurs": 4308,
      "isch": 4309,
      "Ġmouth": 4310,
      "ĠUse": 4311,
      "ÐµÐ½Ð¸Ñı": 4312,
      "Ġeconomy": 4313,
      "Ġcalcul": 4314,
      "ulated": 4315,
      "Ġgames": 4316,
      "ãĤ¯": 4317,
      "ondon": 4318,
      "ĠCounty": 4319,
      "Ġnearly": 4320,
      "Ġalg": 4321,
      "ras": 4322,
      "ÐµÐ·": 4323,
      "Ġanxiety": 4324,
      "Ġtransl": 4325,
      "oday": 4326,
      "Ġrain": 4327,
      "Ġwent": 4328,
      "ÐµÐ½ÑĤ": 4329,
      "uff": 4330,
      "Ġcenter": 4331,
      "Ġemotional": 4332,
      "ĠAccording": 4333,
      "ĠUK": 4334,
      "Ġrise": 4335,
      "Ġelse": 4336,
      "amic": 4337,
      "Ġstrugg": 4338,
      "Ġobjects": 4339,
      "Ġtou": 4340,
      "Ġobtain": 4341,
      "ĠMc": 4342,
      "uden": 4343,
      "ĠAre": 4344,
      "outhern": 4345,
      "Ġconstant": 4346,
      "odes": 4347,
      "Ġchoice": 4348,
      "ĠWilliam": 4349,
      "reek": 4350,
      "Ġcry": 4351,
      "Ġhistorical": 4352,
      "ĠFin": 4353,
      "Ġconsequ": 4354,
      "Ġcelebr": 4355,
      "Ġjud": 4356,
      "Ġvirt": 4357,
      "Ġanti": 4358,
      "Ġcontext": 4359,
      "itch": 4360,
      "OR": 4361,
      "ĠInc": 4362,
      "Ġcateg": 4363,
      "orthern": 4364,
      "vis": 4365,
      "Ġsmaller": 4366,
      "Ġexplain": 4367,
      "Ġnamed": 4368,
      "iring": 4369,
      "arian": 4370,
      "ÑĢÐµÐ´": 4371,
      "ocks": 4372,
      "Ġstories": 4373,
      "Ġconvers": 4374,
      "Ġcontroll": 4375,
      "ÛĮÙĨ": 4376,
      "Ġbei": 4377,
      "ĠTrans": 4378,
      "ãĤĬ": 4379,
      "part": 4380,
      "rong": 4381,
      "olar": 4382,
      "Ġrules": 4383,
      "gra": 4384,
      "Ġfear": 4385,
      "Ġfruit": 4386,
      "Ġeducational": 4387,
      "Ġgoes": 4388,
      "Ġagree": 4389,
      "Ġbirds": 4390,
      "Ġlas": 4391,
      "Ġlaws": 4392,
      "ĠEducation": 4393,
      "Ġconsumption": 4394,
      "gery": 4395,
      "Ġfra": 4396,
      "'re": 4397,
      "ager": 4398,
      "ĠRead": 4399,
      "iable": 4400,
      "Ġvo": 4401,
      "lege": 4402,
      "Ġhous": 4403,
      "Ġwinter": 4404,
      "ĠNovember": 4405,
      "Ġcollection": 4406,
      "mat": 4407,
      "Ġtrade": 4408,
      "ĠDevelop": 4409,
      "Ġmal": 4410,
      "Ġexpected": 4411,
      "à¸Ĥà¸Ńà¸ĩ": 4412,
      "Ġmiddle": 4413,
      "Ġeffectively": 4414,
      "ÑĩÐ°": 4415,
      "Ġdate": 4416,
      "Ġmis": 4417,
      "Ġtim": 4418,
      "Ġsein": 4419,
      "Ġmention": 4420,
      "ĠLand": 4421,
      "ĠJuly": 4422,
      "Ġsem": 4423,
      "Ġstra": 4424,
      "Ġsites": 4425,
      "Ġdead": 4426,
      "rich": 4427,
      "rest": 4428,
      "iska": 4429,
      "Ġice": 4430,
      "tes": 4431,
      "Ġcitiz": 4432,
      "mosp": 4433,
      "iate": 4434,
      "Ġroot": 4435,
      "Ġteach": 4436,
      "Ġremember": 4437,
      "anish": 4438,
      "ĠÐĽ": 4439,
      "Ġtopic": 4440,
      "Ġæľ": 4441,
      "Ġpredict": 4442,
      "Ġmonit": 4443,
      "Ġlength": 4444,
      "Ġcompletely": 4445,
      "Ġmanage": 4446,
      "rote": 4447,
      "Ġvision": 4448,
      "phas": 4449,
      "Ġsaw": 4450,
      "ĠÃ¤": 4451,
      "Ġdegree": 4452,
      "iad": 4453,
      "Ġlimit": 4454,
      "Ġtrying": 4455,
      "uen": 4456,
      "Ġwond": 4457,
      "Ġdecisions": 4458,
      "ĠDon": 4459,
      "Ġmuscle": 4460,
      "esch": 4461,
      "fully": 4462,
      "isl": 4463,
      "Ġfather": 4464,
      "Ġscale": 4465,
      "Ġseems": 4466,
      "rew": 4467,
      "Ġbrought": 4468,
      "ander": 4469,
      "ĠDuring": 4470,
      "ibrary": 4471,
      "Ġactions": 4472,
      "Ġdrugs": 4473,
      "Ġmid": 4474,
      "Ġeasier": 4475,
      "Ġplanning": 4476,
      "ague": 4477,
      "Ġcommit": 4478,
      "Ġdescribed": 4479,
      "Ġhundred": 4480,
      "Ġassign": 4481,
      "ses": 4482,
      "Ġroad": 4483,
      "aint": 4484,
      "ĠUnder": 4485,
      "ãĥĥ": 4486,
      "Ġplatform": 4487,
      "Ġrecently": 4488,
      "ĠMal": 4489,
      "Ġdied": 4490,
      "Ġanything": 4491,
      "Ġrequirements": 4492,
      "Ġbasis": 4493,
      "Ġplayers": 4494,
      "Ġnuc": 4495,
      "Ġtox": 4496,
      "Ġefficiency": 4497,
      "ĠJesus": 4498,
      "Ġcontract": 4499,
      "ãģķ": 4500,
      "Ġmoment": 4501,
      "rees": 4502,
      "Ġbed": 4503,
      "ÑģÐºÐ¾Ð³Ð¾": 4504,
      "rupt": 4505,
      "ĠWater": 4506,
      "Ðļ": 4507,
      "Ġappe": 4508,
      "Ġprofession": 4509,
      "Ġjournal": 4510,
      "ĠEven": 4511,
      "Ġstrength": 4512,
      "Ġfresh": 4513,
      "ĠHistory": 4514,
      "Ġexec": 4515,
      "ĠAustralia": 4516,
      "Ġhealthcare": 4517,
      "ĠSa": 4518,
      "hemat": 4519,
      "ĠÃ©": 4520,
      "rie": 4521,
      "ĠChinese": 4522,
      "Ġreduced": 4523,
      "Ġdepression": 4524,
      "Ġà¹Ģà¸": 4525,
      "Ġett": 4526,
      "unk": 4527,
      "ees": 4528,
      "Ġlinks": 4529,
      "Ġsen": 4530,
      "ĠCommun": 4531,
      "ĠAmericans": 4532,
      "Ġexcess": 4533,
      "×Ĳ×": 4534,
      "ĠLondon": 4535,
      "Ġvill": 4536,
      "Ġspirit": 4537,
      "used": 4538,
      "Ġdetect": 4539,
      "EN": 4540,
      "Ġdeal": 4541,
      "Ð½ÑĭÐµ": 4542,
      "ĠSur": 4543,
      "Ġwhose": 4544,
      "Ġunit": 4545,
      "ructure": 4546,
      "ygen": 4547,
      "Ġshap": 4548,
      "Ġmig": 4549,
      "Ġintellig": 4550,
      "Ò£": 4551,
      "Ġcoast": 4552,
      "Some": 4553,
      "ĠÂ°": 4554,
      "VID": 4555,
      "rael": 4556,
      "Ġtrad": 4557,
      "Ġeffort": 4558,
      "ĠØ²": 4559,
      "Ġcapacity": 4560,
      "wr": 4561,
      "ydd": 4562,
      "lag": 4563,
      "uild": 4564,
      "ÐºÐ¸": 4565,
      "Ġfunctions": 4566,
      "Ġcareer": 4567,
      "book": 4568,
      "aled": 4569,
      "ura": 4570,
      "Ġleave": 4571,
      "ensity": 4572,
      "more": 4573,
      "ĠKe": 4574,
      "Ġreleased": 4575,
      "Ġgold": 4576,
      "Ġfeature": 4577,
      "ocol": 4578,
      "Ġinstance": 4579,
      "Ġkm": 4580,
      "ãģĤ": 4581,
      "--": 4582,
      "Ġincreases": 4583,
      "IV": 4584,
      "Ġnutrition": 4585,
      "hab": 4586,
      "ĠVir": 4587,
      "Ġenter": 4588,
      "ora": 4589,
      "Ġhol": 4590,
      "Ġalone": 4591,
      "force": 4592,
      "Ġinflamm": 4593,
      "Ġvital": 4594,
      "ĠChe": 4595,
      "Ġstar": 4596,
      "vens": 4597,
      "ĠØ¹": 4598,
      "Ġcontribute": 4599,
      "Ġcommerc": 4600,
      "ĠJanuary": 4601,
      "ĠChristian": 4602,
      "mark": 4603,
      "Ġenhance": 4604,
      "udd": 4605,
      "Ġorganizations": 4606,
      "airs": 4607,
      "Ġhat": 4608,
      "PA": 4609,
      "Ġnorth": 4610,
      "á±®á±": 4611,
      "Ġdisorder": 4612,
      "Ġtold": 4613,
      "Ġdifferences": 4614,
      "ibly": 4615,
      "Ġbillion": 4616,
      "Ġtask": 4617,
      "Ġstim": 4618,
      "ĠFebru": 4619,
      "being": 4620,
      "Ġfully": 4621,
      "Ġfile": 4622,
      "ÑĥÐ´": 4623,
      "Ġitems": 4624,
      "ĠDis": 4625,
      "related": 4626,
      "Ġsong": 4627,
      "Ġclassroom": 4628,
      "Ġalt": 4629,
      "Ġlos": 4630,
      "Ġfert": 4631,
      "ĠOver": 4632,
      "ĠÑĪ": 4633,
      "ÙĪØ¬": 4634,
      "reet": 4635,
      "ĠÐ¶": 4636,
      "Ġcomprehens": 4637,
      "Ġdyn": 4638,
      "mal": 4639,
      "Ġmaxim": 4640,
      "Ġgenetic": 4641,
      "Ġâ": 4642,
      "ĠÃ¼ber": 4643,
      "Ġpow": 4644,
      "Ġdiscovered": 4645,
      "Ġindustrial": 4646,
      "iny": 4647,
      "Ġum": 4648,
      "Ã¶n": 4649,
      "iox": 4650,
      "Ġsouth": 4651,
      "Ġstructures": 4652,
      "Ġseg": 4653,
      "ube": 4654,
      "ĠPeople": 4655,
      "Ġencourag": 4656,
      "apter": 4657,
      "ĠDen": 4658,
      "unch": 4659,
      "Ġdisplay": 4660,
      "Ġtissue": 4661,
      "Ġpiece": 4662,
      "burg": 4663,
      "Ġworked": 4664,
      "ĠÐ±ÑĭÐ»": 4665,
      "ĠJust": 4666,
      "Ġantib": 4667,
      "iful": 4668,
      "farwydd": 4669,
      "IT": 4670,
      "eck": 4671,
      "ĠOctober": 4672,
      "Ġversion": 4673,
      "ĠTheir": 4674,
      "Ġreligious": 4675,
      "Ġmoving": 4676,
      "Ġmetal": 4677,
      "Ġbox": 4678,
      "house": 4679,
      "Ġfollowed": 4680,
      "Ð½Ðµ": 4681,
      "ÑģÐºÐ¾Ð¹": 4682,
      "ĠÐ³Ð¾Ð´Ñĥ": 4683,
      "Ġera": 4684,
      "Ġglass": 4685,
      "Ġinteresting": 4686,
      "åĪ": 4687,
      "ĠRoman": 4688,
      "ĠGreat": 4689,
      "à¸Ľà¸£à¸°": 4690,
      "ãĤĤ": 4691,
      "Ġstaff": 4692,
      "Ġcities": 4693,
      "iger": 4694,
      "rome": 4695,
      "ĠFrance": 4696,
      "iest": 4697,
      "Ġformer": 4698,
      "Ġpartn": 4699,
      "ĠPresident": 4700,
      "ĠÑĺÐµ": 4701,
      "Ġcra": 4702,
      "Ġrelev": 4703,
      "ÃŃa": 4704,
      "ĠÐ¿ÐµÑĢ": 4705,
      "ĠFe": 4706,
      "Ġaspects": 4707,
      "Ġpresence": 4708,
      "Ġwoman": 4709,
      "éĢ": 4710,
      "ulum": 4711,
      "Ġexpand": 4712,
      "Ġelement": 4713,
      "Ġfriend": 4714,
      "ĠLet": 4715,
      "ĠæľĪ": 4716,
      "Ġvary": 4717,
      "Ġelectricity": 4718,
      "ĠMex": 4719,
      "Ġnovel": 4720,
      "Ġgir": 4721,
      "ĠBra": 4722,
      "ika": 4723,
      "umn": 4724,
      "Ġattract": 4725,
      "Ġpul": 4726,
      "Ġplaced": 4727,
      "Ġdogs": 4728,
      "Ġacqu": 4729,
      "Ġexisting": 4730,
      "Ġchallenge": 4731,
      "wise": 4732,
      "Ð¸ÑĩÐµÑģÐº": 4733,
      "Ġasked": 4734,
      "Ġdetails": 4735,
      "Ġrunning": 4736,
      "ĠCor": 4737,
      "Ġcoming": 4738,
      "bal": 4739,
      "Ġtrig": 4740,
      "Ġded": 4741,
      "Ġbecoming": 4742,
      "Ġperspect": 4743,
      "Ġfair": 4744,
      "Ġneigh": 4745,
      "Ġbone": 4746,
      "Ad": 4747,
      "Ðł": 4748,
      "pen": 4749,
      "sten": 4750,
      "ceed": 4751,
      "iant": 4752,
      "Ġapplied": 4753,
      "Ġgiving": 4754,
      "formation": 4755,
      "Ġsave": 4756,
      "iding": 4757,
      "aters": 4758,
      "Ð¾Ð²Ð°Ð½": 4759,
      "Ġmap": 4760,
      "amil": 4761,
      "Ġchronic": 4762,
      "à¹Ħà¸Ķ": 4763,
      "ĠĊĠĊ": 4764,
      "Ġremove": 4765,
      "ancing": 4766,
      "ÙĥØ¨": 4767,
      "apers": 4768,
      "Ġplans": 4769,
      "ÙĥÙĪÙĥØ¨": 4770,
      "ita": 4771,
      "Ġdur": 4772,
      "Ġcorn": 4773,
      "Ġnote": 4774,
      "ought": 4775,
      "Ġhyp": 4776,
      "Ġincorpor": 4777,
      "ifically": 4778,
      "ĠCollege": 4779,
      "ashington": 4780,
      "Ġallowing": 4781,
      "Ġtransfer": 4782,
      "ĠPal": 4783,
      "Ġoffic": 4784,
      "Ġcomfort": 4785,
      "ĠEast": 4786,
      "ingu": 4787,
      "Ġatmosp": 4788,
      "Ġpromote": 4789,
      "ĠEach": 4790,
      "Ġserve": 4791,
      "Ġdisorders": 4792,
      "Ġbelief": 4793,
      "Ġhorm": 4794,
      "Ġcausing": 4795,
      "Ġblue": 4796,
      "Ġfederal": 4797,
      "ÑĥÑĤ": 4798,
      "Ġurban": 4799,
      "ĠBel": 4800,
      "References": 4801,
      "ser": 4802,
      "ĠPhil": 4803,
      "Ġprice": 4804,
      "ĠMich": 4805,
      "ĠPlan": 4806,
      "Ġmedicine": 4807,
      "Ġtasks": 4808,
      "Ġmilk": 4809,
      "Ġiniti": 4810,
      "Ġtrust": 4811,
      "omas": 4812,
      "Ġnav": 4813,
      "Ġacademic": 4814,
      "Ġillust": 4815,
      "rief": 4816,
      "Ġemphas": 4817,
      "ognitive": 4818,
      "known": 4819,
      "ĠMuse": 4820,
      "ares": 4821,
      "ĠGovern": 4822,
      "Ġvul": 4823,
      "ĠThen": 4824,
      "Ð»Ðµ": 4825,
      "Ġworth": 4826,
      "iences": 4827,
      "Ġresistance": 4828,
      "ãģĻ": 4829,
      "Ġkid": 4830,
      "Ġadvanced": 4831,
      "Ġfemale": 4832,
      "Ġfactor": 4833,
      "Ġhope": 4834,
      "Ġidentified": 4835,
      "Ġallowed": 4836,
      "Ġexhib": 4837,
      "All": 4838,
      "cast": 4839,
      "ĠGeneral": 4840,
      "Ġhelping": 4841,
      "à¸ĺ": 4842,
      "ĠProt": 4843,
      "Is": 4844,
      "bit": 4845,
      "Ġhomes": 4846,
      "EM": 4847,
      "Ġ×Ĳ": 4848,
      "erate": 4849,
      "Ġwatch": 4850,
      "pped": 4851,
      "âĢĿ,": 4852,
      "Ġvitamin": 4853,
      "ĠNow": 4854,
      "Ġinstruct": 4855,
      "Ġforward": 4856,
      "Ġrelationships": 4857,
      "ximately": 4858,
      "gl": 4859,
      "à¸ł": 4860,
      "Ġinsect": 4861,
      "Ġforces": 4862,
      "wer": 4863,
      "Ġbuildings": 4864,
      "see": 4865,
      "Ġtemperatures": 4866,
      "Ġapply": 4867,
      "Cy": 4868,
      "Ġchanged": 4869,
      "Ġrot": 4870,
      "Ġstatus": 4871,
      "Ġeiner": 4872,
      "works": 4873,
      "Ġhappen": 4874,
      "ĠDet": 4875,
      "Ġcand": 4876,
      "ĠDecember": 4877,
      "orial": 4878,
      "ĠMa": 4879,
      "ola": 4880,
      "ĠØ§Ø²": 4881,
      "ĠMor": 4882,
      "inated": 4883,
      "OS": 4884,
      "ĠÐ²Ñĭ": 4885,
      "Ġrecommended": 4886,
      "Ġconstit": 4887,
      "ĠSince": 4888,
      "Ġball": 4889,
      "can": 4890,
      "ĠAlso": 4891,
      "Ġpick": 4892,
      "hal": 4893,
      "rum": 4894,
      "ãģ®å": 4895,
      "www": 4896,
      "Ġunivers": 4897,
      "Ġdri": 4898,
      "Ġstore": 4899,
      "osystem": 4900,
      "ÑĢÐ°Ð½": 4901,
      "craft": 4902,
      "ĠCong": 4903,
      "Ġwrote": 4904,
      "Ġrelease": 4905,
      "Ġadjust": 4906,
      "Ġresource": 4907,
      "Ø§Ø·": 4908,
      "Ġzen": 4909,
      "Ġgw": 4910,
      "Ġfindings": 4911,
      "ÐĲ": 4912,
      "Ġconnection": 4913,
      "ĠNet": 4914,
      "Ġzum": 4915,
      "Ġtoward": 4916,
      "Ġweak": 4917,
      "ĠCOVID": 4918,
      "enty": 4919,
      "Ġstorage": 4920,
      "ãģĹãģ¦": 4921,
      "à¸ľ": 4922,
      "ession": 4923,
      "Ġmajority": 4924,
      "hi": 4925,
      "opp": 4926,
      "Ġnumerous": 4927,
      "Ġinfections": 4928,
      "Ġexpert": 4929,
      "ĠHouse": 4930,
      "Ġinjury": 4931,
      "Ġregions": 4932,
      "ĠInter": 4933,
      "ĠMark": 4934,
      "essor": 4935,
      "Ġoption": 4936,
      "ĠAv": 4937,
      "Ġsequ": 4938,
      "After": 4939,
      "ÑĤÐ¾": 4940,
      "Ã¥ng": 4941,
      "ditionally": 4942,
      "Ġgeneration": 4943,
      "Ġcycle": 4944,
      "ÙĨØ§": 4945,
      "ĠDer": 4946,
      "Ġformed": 4947,
      "Ġsetting": 4948,
      "Ġoxygen": 4949,
      "Ġreality": 4950,
      "Ġliqu": 4951,
      "Ġchance": 4952,
      "However": 4953,
      "ĠCour": 4954,
      "ÑĥÑİ": 4955,
      "Ġencourage": 4956,
      "Ġboard": 4957,
      "emy": 4958,
      "Res": 4959,
      "ĠPort": 4960,
      "semb": 4961,
      "Â·": 4962,
      "Ġearlier": 4963,
      "Ġwin": 4964,
      "Ġdram": 4965,
      "Ġzur": 4966,
      "Ġconstruct": 4967,
      "ĠIsrael": 4968,
      "ĠJahr": 4969,
      "aign": 4970,
      "Ġking": 4971,
      "cious": 4972,
      "ĠCoun": 4973,
      "Ġoccup": 4974,
      "onn": 4975,
      "Ġcollege": 4976,
      "æĸ": 4977,
      "ĠBi": 4978,
      "Ġawareness": 4979,
      "Ø§Ùģ": 4980,
      "Ġfeeling": 4981,
      "Ġorganic": 4982,
      "Ġ#": 4983,
      "ÐµÑĩ": 4984,
      "Ġeight": 4985,
      "Ġnothing": 4986,
      "Ġextremely": 4987,
      "rÃ¤": 4988,
      "ĠWashington": 4989,
      "Ġpicture": 4990,
      "Ġiron": 4991,
      "à¸Ńà¸Ļ": 4992,
      "ÙĪØ±Ùĩ": 4993,
      "iance": 4994,
      "Ġmiles": 4995,
      "ĠSam": 4996,
      "Ġcompar": 4997,
      "Ġinterpret": 4998,
      "Ġfix": 4999,
      "Ġbank": 5000,
      "Ġthousands": 5001,
      "edom": 5002,
      "Ġstarting": 5003,
      "Ġproperly": 5004,
      "Ġhuge": 5005,
      "Ġnative": 5006,
      "Ġfavor": 5007,
      "ĠChurch": 5008,
      "Ġjour": 5009,
      "Ġdidn": 5010,
      "Ġdecades": 5011,
      "Ġconnected": 5012,
      "Ġrepe": 5013,
      "Ġspect": 5014,
      "ĠHel": 5015,
      "Ø¯Ø§ÙĦ": 5016,
      "sen": 5017,
      "Ġbodies": 5018,
      "Ġmag": 5019,
      "Ġbreast": 5020,
      "unn": 5021,
      "Ġrule": 5022,
      "urance": 5023,
      "Ġcommercial": 5024,
      "Ġoperations": 5025,
      "ĠVol": 5026,
      "ĠArch": 5027,
      "éģ": 5028,
      "Ġdecl": 5029,
      "zt": 5030,
      "Ġspring": 5031,
      "rep": 5032,
      "elines": 5033,
      "gypt": 5034,
      "à¸©": 5035,
      "Ġheavy": 5036,
      "Ġchanging": 5037,
      "Ġincome": 5038,
      "place": 5039,
      "upp": 5040,
      "ãģĵ": 5041,
      "ĠÛ°": 5042,
      "Ġexperts": 5043,
      "Ð°Ð·": 5044,
      "iveness": 5045,
      "Ġprem": 5046,
      "ket": 5047,
      "ĠBecause": 5048,
      "à¸²à¸§": 5049,
      "roy": 5050,
      "Ġmale": 5051,
      "ĠDNA": 5052,
      "Ġupd": 5053,
      "ommun": 5054,
      "ĠÙ¾": 5055,
      "ĠÑı": 5056,
      "Ġtour": 5057,
      "encies": 5058,
      "ÑģÐ¿": 5059,
      "Ġrat": 5060,
      "Ġseeds": 5061,
      "Ġnutrients": 5062,
      "Ðĺ": 5063,
      "rian": 5064,
      "no": 5065,
      "ÙĪØ¯": 5066,
      "Ġnames": 5067,
      "ht": 5068,
      "Ġvalu": 5069,
      "ÑĥÐ±": 5070,
      "Ġdepending": 5071,
      "Ġ--": 5072,
      "Ġwidely": 5073,
      "ĠAssociation": 5074,
      "Ġrelatively": 5075,
      "Ġsmart": 5076,
      "Ġtrend": 5077,
      "Ġscen": 5078,
      "Ġpeace": 5079,
      "éĸ": 5080,
      "riculum": 5081,
      "EC": 5082,
      "Ġphilos": 5083,
      "Ġpollution": 5084,
      "AL": 5085,
      "ĠEnvironment": 5086,
      "efore": 5087,
      "ĠÐ¤": 5088,
      "isp": 5089,
      "do": 5090,
      "board": 5091,
      "ĠSociety": 5092,
      "ĠGreen": 5093,
      "ĠUnion": 5094,
      "ĠMart": 5095,
      "ĠAir": 5096,
      "Ġplayed": 5097,
      "Ġgender": 5098,
      "Ġdurch": 5099,
      "ĠLaw": 5100,
      "Ġsurgery": 5101,
      "Ġbusinesses": 5102,
      "olf": 5103,
      "ologist": 5104,
      "Ø¹Ø±": 5105,
      "Ġpresident": 5106,
      "Ġgraph": 5107,
      "lies": 5108,
      "Ġeventually": 5109,
      "Ġmission": 5110,
      "ĠSal": 5111,
      "Ġtips": 5112,
      "anging": 5113,
      "Ġbuy": 5114,
      "Ġlayer": 5115,
      "Ġchurch": 5116,
      "Ġdrive": 5117,
      "ĠØ¨Ø¹": 5118,
      "ende": 5119,
      "Ġstream": 5120,
      "Ġdistance": 5121,
      "Ġconcerns": 5122,
      "Ġtreated": 5123,
      "ÓĻÑĢ": 5124,
      "ocr": 5125,
      "Ġcombination": 5126,
      "geb": 5127,
      "Ã¤l": 5128,
      "ella": 5129,
      "Ġflex": 5130,
      "esc": 5131,
      "Ġclinical": 5132,
      "Ġsort": 5133,
      "onds": 5134,
      "Ġsuggests": 5135,
      "Ġemail": 5136,
      "Ġprocessing": 5137,
      "oga": 5138,
      "Ġcontinued": 5139,
      "Ġoffice": 5140,
      "oster": 5141,
      "eln": 5142,
      "DA": 5143,
      "Ã©e": 5144,
      "Ġcharacteristics": 5145,
      "ĠEst": 5146,
      "Ġhappens": 5147,
      "Ġdirection": 5148,
      "They": 5149,
      "Ġshowed": 5150,
      "change": 5151,
      "Ġmotor": 5152,
      "Ġbes": 5153,
      "Ġgets": 5154,
      "è¡": 5155,
      "Ġtechnique": 5156,
      "ÐºÑĤ": 5157,
      "Se": 5158,
      "Ġpa": 5159,
      "ags": 5160,
      "ĠRem": 5161,
      "ĠOrgan": 5162,
      "Ġvulner": 5163,
      "ĠChildren": 5164,
      "Ġprepar": 5165,
      "Ġwrong": 5166,
      "ØªÙĤ": 5167,
      "Ġfrequently": 5168,
      "æĿ": 5169,
      "Ġcore": 5170,
      "ogle": 5171,
      "Ġbound": 5172,
      "Ġthr": 5173,
      "ĠÑģÐ²": 5174,
      "ĠÙģÙī": 5175,
      "Ġdigest": 5176,
      "ĠØ§ÙĦØ´": 5177,
      "Ġpal": 5178,
      "zing": 5179,
      "ĠÙĦÙĪ": 5180,
      "Ġconcepts": 5181,
      "onst": 5182,
      "ãĢĮ": 5183,
      "Ġfields": 5184,
      "ĠLat": 5185,
      "ÙĬÙĦ": 5186,
      "ãĢį": 5187,
      "Im": 5188,
      "Ġalternative": 5189,
      "porary": 5190,
      "Ġdental": 5191,
      "Ġexcell": 5192,
      "Ġdivid": 5193,
      "ĠFebruary": 5194,
      "ificial": 5195,
      "Ġbelieved": 5196,
      "Ġready": 5197,
      "Not": 5198,
      "Ġmath": 5199,
      "ĠFre": 5200,
      "Ġconsult": 5201,
      "ĠProgram": 5202,
      "Ġdefined": 5203,
      "Ġfamous": 5204,
      "comes": 5205,
      "ĠfÃ¶": 5206,
      "Ġvegetables": 5207,
      "Ġassessment": 5208,
      "ĠBen": 5209,
      "Ġevol": 5210,
      "ĠWork": 5211,
      "ĠDan": 5212,
      "bar": 5213,
      "Ġengineering": 5214,
      "Ġexperienced": 5215,
      "Ġreports": 5216,
      "PS": 5217,
      "Ġspeech": 5218,
      "Ġblev": 5219,
      "Ġreplace": 5220,
      "à¸ĵ": 5221,
      "ĠEin": 5222,
      "resp": 5223,
      "hetic": 5224,
      "ĠKar": 5225,
      "Pl": 5226,
      "Ġdangerous": 5227,
      "Ġfigure": 5228,
      "ael": 5229,
      "Ġband": 5230,
      "ĠDist": 5231,
      "Ġud": 5232,
      "rastructure": 5233,
      "Ġhighest": 5234,
      "col": 5235,
      "Ð»Ð°ÑĢ": 5236,
      "Ġsurpr": 5237,
      "amental": 5238,
      "unction": 5239,
      "Ġmut": 5240,
      "ishing": 5241,
      "Ġpolicies": 5242,
      "bum": 5243,
      "ressive": 5244,
      "ocal": 5245,
      "Ġcontrast": 5246,
      "lick": 5247,
      "Ġliterature": 5248,
      "Ġhearing": 5249,
      "Ġleads": 5250,
      "Ġbackground": 5251,
      "ĠGermany": 5252,
      "Ġleaders": 5253,
      "Ġnotes": 5254,
      "osa": 5255,
      "Ġshall": 5256,
      "à¸į": 5257,
      "aciÃ³": 5258,
      "ĠConf": 5259,
      "Ġlearned": 5260,
      "Ġintroduced": 5261,
      "Ø§Ø¹Øª": 5262,
      "order": 5263,
      "Ġtro": 5264,
      "Ġelimin": 5265,
      "Ġbran": 5266,
      "à¸Ļà¸Ĺ": 5267,
      "uten": 5268,
      "ãĤ·": 5269,
      "oe": 5270,
      "ista": 5271,
      "Ġcitizens": 5272,
      "Ð½Ð¾ÑģÑĤ": 5273,
      "wy": 5274,
      "pping": 5275,
      "ĠIts": 5276,
      "ĠCur": 5277,
      "ĠPaul": 5278,
      "Ġplays": 5279,
      "Ġresulting": 5280,
      "According": 5281,
      "iten": 5282,
      "ĠÑĢ": 5283,
      "Ġprinciples": 5284,
      "Ġmotiv": 5285,
      "Ġmel": 5286,
      "omin": 5287,
      "Ġadvance": 5288,
      "ĠÐ½Ðµ": 5289,
      "oyal": 5290,
      "Ġimmediately": 5291,
      "Here": 5292,
      "Why": 5293,
      "ograf": 5294,
      "kl": 5295,
      "Ġsurvey": 5296,
      "Ġequal": 5297,
      "Ġlinked": 5298,
      "Ġserved": 5299,
      "ava": 5300,
      "Ġecosystem": 5301,
      "ĠFood": 5302,
      "Ġsed": 5303,
      "ĠØ£": 5304,
      "zi": 5305,
      "Ġprefer": 5306,
      "Ġconducted": 5307,
      "ĠSpec": 5308,
      "Ġinvolve": 5309,
      "Ġexperiment": 5310,
      "ĠSocial": 5311,
      "ÑģÐºÐ¸Ð¹": 5312,
      "Ġsample": 5313,
      "Ø¨ÙĬ": 5314,
      "ĠÐ£": 5315,
      "Ġinternet": 5316,
      "Ġactual": 5317,
      "AM": 5318,
      "ĠOnce": 5319,
      "ĠMary": 5320,
      "Ġrelevant": 5321,
      "Ġmanufacture": 5322,
      "ÙħØµ": 5323,
      "alle": 5324,
      "inder": 5325,
      "Ġelectrical": 5326,
      "Ġsituations": 5327,
      "Ġevolution": 5328,
      "Ġvid": 5329,
      "Ġtreatments": 5330,
      "hoedd": 5331,
      "roup": 5332,
      "éĥ": 5333,
      "tenance": 5334,
      "Ġflood": 5335,
      "Ġhousehold": 5336,
      "ÙĪÙĦ": 5337,
      "ifying": 5338,
      "ĠÙĩÙĪØ§": 5339,
      "Ġmuscles": 5340,
      "Ġimproved": 5341,
      "Ġriver": 5342,
      "Ġpip": 5343,
      "Ġburn": 5344,
      "ĠFound": 5345,
      "Ġprofessor": 5346,
      "à¸ģà¸£": 5347,
      "ÙĤØ·Ùĩ": 5348,
      "Ġrenew": 5349,
      "ĠInternet": 5350,
      "itter": 5351,
      "ĠÙĨÙĤØ·Ùĩ": 5352,
      "Ġimpacts": 5353,
      "urally": 5354,
      "Ġparticipants": 5355,
      "rund": 5356,
      "acing": 5357,
      "ĠØ§ÙĦÙħÙĬÙĦ": 5358,
      "Ġjoint": 5359,
      "ĠØ¨Ø¹Ø¯Ùĩ": 5360,
      "Ġstatement": 5361,
      "mitted": 5362,
      "ĠØ§ÙĦÙĥ": 5363,
      "edia": 5364,
      "ĠØ¨ÙĬÙĨ": 5365,
      "ÑĢÐ°Ð²": 5366,
      "à¸Ħà¸£": 5367,
      "ĠØ§ÙĦØ²": 5368,
      "á±¤á±": 5369,
      "sta": 5370,
      "fÃ¶r": 5371,
      "Ġspot": 5372,
      "Ġinitial": 5373,
      "Ġdrop": 5374,
      "Ġperformed": 5375,
      "ĠØ§ÙĦÙĨØ¬Ùħ": 5376,
      "ĠUN": 5377,
      "Ph": 5378,
      "Ġideal": 5379,
      "ÙĪØ§Ø¡": 5380,
      "Ġtopics": 5381,
      "ĠĊĠ": 5382,
      "Ø¹Ùī": 5383,
      "ĠØ§ÙĦØ§Ø³ØªÙĪØ§Ø¡": 5384,
      "ĠØ§ÙĦØ´Ø¹": 5385,
      "Ø§Ø¹ØªØ¯Ø§ÙĦ": 5386,
      "ga": 5387,
      "ĠØ§ÙĦØ±Ø¨ÙĬ": 5388,
      "ĠØ§ÙĦØ§Ø¹ØªØ¯Ø§ÙĦ": 5389,
      "ĠØ¯Ø§ÙĬØ±Ùĩ": 5390,
      "ĠØ³Ø±Ø¹Ùĩ": 5391,
      "ĠÙĦØ¬Ø±Ùħ": 5392,
      "ĠØ§ÙĦØ±Ø¨ÙĬØ¹Ùī": 5393,
      "ĠØ§ÙĦØ§ÙĨØ²ÙĬØ§ØŃ": 5394,
      "ĠØ§ÙĦØ³Ø±Ø¹Ùĩ": 5395,
      "ĠØ§ÙĦØ´Ø¹Ø§Ø¹ÙĬÙĩ": 5396,
      "una": 5397,
      "Ġdiverse": 5398,
      "Ø§ÙĪÙĬÙĩ": 5399,
      "ĠØ§ÙĦØ²Ø§ÙĪÙĬÙĩ": 5400,
      "aler": 5401,
      "ĠWhy": 5402,
      "Ġhimself": 5403,
      "ĠØªÙĥÙĪÙĨ": 5404,
      "à¹Ģà¸£": 5405,
      "ĠÙĤÙĬÙħØ©": 5406,
      "Ġdiscover": 5407,
      "Ġsexual": 5408,
      "Ġinternal": 5409,
      "cont": 5410,
      "ightly": 5411,
      "Ġseven": 5412,
      "De": 5413,
      "iat": 5414,
      "Ġdistinct": 5415,
      "ĠImp": 5416,
      "Ġcommand": 5417,
      "Ġchemicals": 5418,
      "Ġensuring": 5419,
      "ris": 5420,
      "inger": 5421,
      "ĠØŃ": 5422,
      "ĠDavid": 5423,
      "Ġanyone": 5424,
      "Sh": 5425,
      "tical": 5426,
      "×ķ×": 5427,
      "Ġcontinues": 5428,
      "Ġvaluable": 5429,
      "Ġseparate": 5430,
      "utsc": 5431,
      "Ġsynt": 5432,
      "Ġaqu": 5433,
      "lem": 5434,
      "Ġgave": 5435,
      "char": 5436,
      "iments": 5437,
      "Ġsolid": 5438,
      "ĠMuseum": 5439,
      "Ġwall": 5440,
      "Ġpractical": 5441,
      "stead": 5442,
      "Ġell": 5443,
      "ĠTur": 5444,
      "Ġapproximately": 5445,
      "bi": 5446,
      "oren": 5447,
      "ĠTherefore": 5448,
      "Ġvan": 5449,
      "Ð»ÐµÐ½": 5450,
      "Ġsav": 5451,
      "Ġaffects": 5452,
      "ĠHen": 5453,
      "Ġjourney": 5454,
      "ĠJames": 5455,
      "Ġmoved": 5456,
      "po": 5457,
      "rete": 5458,
      "ahl": 5459,
      "Ġmoist": 5460,
      "Ġconcl": 5461,
      "icians": 5462,
      "ĠPublic": 5463,
      "hors": 5464,
      "):": 5465,
      "Ñļ": 5466,
      "Ġclick": 5467,
      "ĠBro": 5468,
      "Ġpark": 5469,
      "Ġà¸ŀ": 5470,
      "ĠTest": 5471,
      "Ġau": 5472,
      "ĠBas": 5473,
      "Ġviolence": 5474,
      "Ġtrou": 5475,
      "ĠDem": 5476,
      "ĠWestern": 5477,
      "ams": 5478,
      "oking": 5479,
      "Ð³Ð°Ð½": 5480,
      "heim": 5481,
      "ieties": 5482,
      "ologists": 5483,
      "Ġincl": 5484,
      "Ġcert": 5485,
      "erent": 5486,
      "ĠRel": 5487,
      "Ġsac": 5488,
      "ĠRober": 5489,
      "Ġbeautiful": 5490,
      "asion": 5491,
      "ĠOb": 5492,
      "Ġpassed": 5493,
      "Ġinfluen": 5494,
      "ĠSom": 5495,
      "Ġround": 5496,
      "Ġgar": 5497,
      "Ġappears": 5498,
      "Ġconservation": 5499,
      "Ġphen": 5500,
      "ÙĦÙĥ": 5501,
      "ario": 5502,
      "Ġamounts": 5503,
      "estyle": 5504,
      "Ġexactly": 5505,
      "adt": 5506,
      "ØªØ¨": 5507,
      "imens": 5508,
      "Ġgrade": 5509,
      "Ġcast": 5510,
      "Ġfinding": 5511,
      "ographic": 5512,
      "Ġrecords": 5513,
      "à¸ķà¸£": 5514,
      "Ã¤ng": 5515,
      "ĠDi": 5516,
      "Ġperhaps": 5517,
      "ĠØ§ÙĦÙģÙĦÙĥ": 5518,
      "Ġload": 5519,
      "atz": 5520,
      "ĠLearning": 5521,
      "ÐĿ": 5522,
      "ĠDec": 5523,
      "Ġoral": 5524,
      "ĠRev": 5525,
      "Ġvess": 5526,
      "ĠØ§ÙĦØ§ØŃ": 5527,
      "Ġreferred": 5528,
      "Ġhom": 5529,
      "Ġcarried": 5530,
      "ĠØ§ÙĦØ§ØŃÙħØ±": 5531,
      "Ġsand": 5532,
      "ĠØ¨Ø±": 5533,
      "Ġshared": 5534,
      "Ġzeuden": 5535,
      "bert": 5536,
      "Ġpun": 5537,
      "Ġsig": 5538,
      "merican": 5539,
      "cers": 5540,
      "ãĤ¿": 5541,
      "ĠJournal": 5542,
      "Ġfailure": 5543,
      "Ġlesson": 5544,
      "ĠOff": 5545,
      "Ġterrit": 5546,
      "oria": 5547,
      "ĠÐ¿Ð¾Ð»": 5548,
      "ĠJapanese": 5549,
      "Ã¼n": 5550,
      "ĠEgypt": 5551,
      "atural": 5552,
      "Ġmist": 5553,
      "Ã¤ll": 5554,
      "Ġpresc": 5555,
      "iden": 5556,
      "ET": 5557,
      "antic": 5558,
      "ortunately": 5559,
      "cia": 5560,
      "eler": 5561,
      "uv": 5562,
      "ĠEvery": 5563,
      "Ġhop": 5564,
      "ĠMat": 5565,
      "fol": 5566,
      "Ġmeat": 5567,
      "ĠHan": 5568,
      "ãĥ³ãĥ": 5569,
      "Ġexposed": 5570,
      "Ġmonitoring": 5571,
      "Ġocean": 5572,
      "Ġinflammation": 5573,
      "Ġforeign": 5574,
      "Ġstrategy": 5575,
      "Ġnotice": 5576,
      "Ġmer": 5577,
      "Ġcreation": 5578,
      "roid": 5579,
      "Ġeggs": 5580,
      "Our": 5581,
      "Ġthick": 5582,
      "ulf": 5583,
      "Ġrevolution": 5584,
      "ĠDevelopment": 5585,
      "Ġclasses": 5586,
      "æĪ": 5587,
      "ÑĥÐ½": 5588,
      "Ġcampaign": 5589,
      "Ġdiagnosis": 5590,
      "Ġmostly": 5591,
      "US": 5592,
      "ĠRef": 5593,
      "band": 5594,
      "orith": 5595,
      "Ġkeeping": 5596,
      "ĠST": 5597,
      "ÙĪØ³": 5598,
      "Ġpresented": 5599,
      "Ġoutput": 5600,
      "Ġsector": 5601,
      "Ġhear": 5602,
      "Ġindependent": 5603,
      "Ġtal": 5604,
      "Ġfocused": 5605,
      "ĠÙħÛĮ": 5606,
      "ĠMet": 5607,
      "Ġpopulations": 5608,
      "Ġstri": 5609,
      "Ġfab": 5610,
      "Ġallerg": 5611,
      "Ġdro": 5612,
      "Ġbottom": 5613,
      "ischer": 5614,
      "ÑĥÑĩ": 5615,
      "Ġmaster": 5616,
      "Ġdistribution": 5617,
      "Ġlov": 5618,
      "Ð°Ð½Ð´": 5619,
      "Ġcalc": 5620,
      "lymp": 5621,
      "ndrome": 5622,
      "ĠAcad": 5623,
      "Ġbud": 5624,
      "Ġinfrastructure": 5625,
      "ĠStudents": 5626,
      "Ġcognitive": 5627,
      "Ġcovered": 5628,
      "ini": 5629,
      "wood": 5630,
      "åĽ": 5631,
      "Ġseed": 5632,
      "roph": 5633,
      "Ġfaster": 5634,
      "Ġcredit": 5635,
      "ĠTex": 5636,
      "ĠÛ¹": 5637,
      "ãģķãĤĮ": 5638,
      "acters": 5639,
      "Ġsche": 5640,
      "rans": 5641,
      "Ġoutcomes": 5642,
      "onic": 5643,
      "Ġwer": 5644,
      "Ġfeelings": 5645,
      "ĠÛ²": 5646,
      "Cl": 5647,
      "AD": 5648,
      "then": 5649,
      "Ġvehicle": 5650,
      "omy": 5651,
      "rapy": 5652,
      "Ġflowers": 5653,
      "Ġrefers": 5654,
      "ĠGeorge": 5655,
      "Ġradio": 5656,
      "Ġletter": 5657,
      "Ġmanufacturing": 5658,
      "Ġvaccine": 5659,
      "Ġple": 5660,
      "Ġrace": 5661,
      "Ġhelped": 5662,
      "ĠData": 5663,
      "born": 5664,
      "akt": 5665,
      "Ġfib": 5666,
      "Ġopin": 5667,
      "ĠRich": 5668,
      "rier": 5669,
      "Ġdans": 5670,
      "Ġtum": 5671,
      "Ġfort": 5672,
      "Ġimproving": 5673,
      "Ġplaying": 5674,
      "Ġign": 5675,
      "Ġgrass": 5676,
      "Ġconflict": 5677,
      "è¨": 5678,
      "vironments": 5679,
      "hesis": 5680,
      "Ġadvantage": 5681,
      "åľ": 5682,
      "Ġdeaths": 5683,
      "istan": 5684,
      "enses": 5685,
      "Ġaccurate": 5686,
      "Ġdrinking": 5687,
      "lements": 5688,
      "Ġisol": 5689,
      "Ġcomprehensive": 5690,
      "Ġarm": 5691,
      "zy": 5692,
      "Sp": 5693,
      "ĠSen": 5694,
      "Ð¸Ð³": 5695,
      "Ġestimated": 5696,
      "ye": 5697,
      "Ġpotentially": 5698,
      "Ġinput": 5699,
      "Ġblog": 5700,
      "Ġpric": 5701,
      "farwyddwr": 5702,
      "lam": 5703,
      "Ġsecure": 5704,
      "ĠÐ¥": 5705,
      "Ġplease": 5706,
      "Ġemergency": 5707,
      "Ġmessage": 5708,
      "eters": 5709,
      "Ð¾Ñĩ": 5710,
      "Ġtil": 5711,
      "Ġregarding": 5712,
      "Ġuns": 5713,
      "Ġregularly": 5714,
      "going": 5715,
      "ophy": 5716,
      "ĠSy": 5717,
      "ĠSpanish": 5718,
      "ÙĨÙĪ": 5719,
      "Ġaid": 5720,
      "van": 5721,
      "anned": 5722,
      "ĠBay": 5723,
      "Ġther": 5724,
      "Ġcounter": 5725,
      "Ġidentity": 5726,
      "Ġcompleted": 5727,
      "Te": 5728,
      "Ġobserved": 5729,
      "ĠÐ¾Ð´": 5730,
      "usive": 5731,
      "Ġintelligence": 5732,
      "ĠNor": 5733,
      "Ġagg": 5734,
      "ĠBet": 5735,
      "Ġwear": 5736,
      "umin": 5737,
      "Ġfruits": 5738,
      "Ġmathemat": 5739,
      "atically": 5740,
      "Ġinterested": 5741,
      "Ð°ÑĢÐ°": 5742,
      "Ġminor": 5743,
      "gs": 5744,
      "ĠCouncil": 5745,
      "Ġgy": 5746,
      "à¸Ńà¸¢": 5747,
      "ĠSer": 5748,
      "ĠParis": 5749,
      "iert": 5750,
      "Ġprofessionals": 5751,
      "ĠLou": 5752,
      "Ġdegrees": 5753,
      "kin": 5754,
      "Ġesc": 5755,
      "ĠProject": 5756,
      "ä¼": 5757,
      "Ġtail": 5758,
      "Ġsalt": 5759,
      "Ġalign": 5760,
      "Ġconsequences": 5761,
      "aciÃ³n": 5762,
      "rates": 5763,
      "ician": 5764,
      "Ġfarmers": 5765,
      "cht": 5766,
      "Ġnor": 5767,
      "isf": 5768,
      "rid": 5769,
      "Many": 5770,
      "Ġsports": 5771,
      "ih": 5772,
      "Ġformat": 5773,
      "Ġinvent": 5774,
      "imately": 5775,
      "Ġyellow": 5776,
      "ĠSol": 5777,
      "ĠÒ": 5778,
      "Ġlegisl": 5779,
      "Ġju": 5780,
      "Ġpieces": 5781,
      "ĠClass": 5782,
      "ASA": 5783,
      "Ú¯Ø±": 5784,
      "Ġdiss": 5785,
      "Ġunf": 5786,
      "ĠInf": 5787,
      "Ġappoint": 5788,
      "Ġhaz": 5789,
      "ĠPhys": 5790,
      "æī": 5791,
      "Ġmaintaining": 5792,
      "hand": 5793,
      "Ġwird": 5794,
      "Ġnerv": 5795,
      "ĠWrit": 5796,
      "Ġaren": 5797,
      "inz": 5798,
      "iko": 5799,
      "ĠProv": 5800,
      "osen": 5801,
      "ãģĨ": 5802,
      "Ġgene": 5803,
      "Ġlie": 5804,
      "Ġadvice": 5805,
      "ĠDef": 5806,
      "ãĥ¬": 5807,
      "Ġthoughts": 5808,
      "ĠSub": 5809,
      "Ġessays": 5810,
      "Ġexcellent": 5811,
      "å¤§": 5812,
      "Ġdefic": 5813,
      "ormal": 5814,
      "Ġroll": 5815,
      "Ġreprodu": 5816,
      "eline": 5817,
      "nic": 5818,
      "Ġlanguages": 5819,
      "Ġprocedure": 5820,
      "Ġassum": 5821,
      "Ġannoun": 5822,
      "Ġharmful": 5823,
      "à¸Ńà¸ģ": 5824,
      "ĠIsland": 5825,
      "Ġparty": 5826,
      "akers": 5827,
      "Ġwanted": 5828,
      "Ġcourt": 5829,
      "down": 5830,
      "Ġvolume": 5831,
      "ĠAD": 5832,
      "ĠFrank": 5833,
      "Ġdriving": 5834,
      "Ġoperation": 5835,
      "Ġingred": 5836,
      "____": 5837,
      "Ġlived": 5838,
      "Ġsurrounding": 5839,
      "Ġannual": 5840,
      "Ġetx": 5841,
      "uts": 5842,
      "Ġdefinition": 5843,
      "Ġinvestment": 5844,
      "Ġtruth": 5845,
      "Ġdatab": 5846,
      "Ġcreative": 5847,
      "ĠMount": 5848,
      "ĠIr": 5849,
      "Ġenvironments": 5850,
      "Ġreaction": 5851,
      "Ġintroduction": 5852,
      "Ġphase": 5853,
      "ĠMont": 5854,
      "Ġlandscape": 5855,
      "Ġcharacters": 5856,
      "Ġoder": 5857,
      "Ġfly": 5858,
      "Ġspend": 5859,
      "Ġstation": 5860,
      "teries": 5861,
      "Ġupper": 5862,
      "war": 5863,
      "Ġsind": 5864,
      "oo": 5865,
      "Ġdescribe": 5866,
      "elle": 5867,
      "ĠTH": 5868,
      "Ġbird": 5869,
      "ĠÐ¿ÑĢÐ¾": 5870,
      "ĠAsia": 5871,
      "Ġwerden": 5872,
      "Ġincreasingly": 5873,
      "Ġhospital": 5874,
      "Ġune": 5875,
      "Ġsyn": 5876,
      "Ġstraight": 5877,
      "Ġmedications": 5878,
      "Ã©n": 5879,
      "Ġmainly": 5880,
      "RE": 5881,
      "kar": 5882,
      "irus": 5883,
      "ĠMil": 5884,
      "Ġhit": 5885,
      "ĠRepublic": 5886,
      "iling": 5887,
      "anted": 5888,
      "Ġconv": 5889,
      "Ð¼Ð¸": 5890,
      "Ġattacks": 5891,
      "Ġbegins": 5892,
      "Ġdirector": 5893,
      "Ġà¹ģà¸¥à¸°": 5894,
      "Ġbelong": 5895,
      "ÑĭÐ¹": 5896,
      "Ġexcept": 5897,
      "itage": 5898,
      "Ġreb": 5899,
      "Ġatmosphere": 5900,
      "ĠSl": 5901,
      "ota": 5902,
      "Ġmort": 5903,
      "Ð°Ñħ": 5904,
      "ooth": 5905,
      "ework": 5906,
      "ĠHuman": 5907,
      "Ġpreviously": 5908,
      "Ġfine": 5909,
      "Ð»ÑĮ": 5910,
      "Ġprimarily": 5911,
      "Ġvot": 5912,
      "oul": 5913,
      "Be": 5914,
      "cular": 5915,
      "Ġemotions": 5916,
      "anda": 5917,
      "Ġemployees": 5918,
      "Ġcurriculum": 5919,
      "Ã³n": 5920,
      "Ġtechnical": 5921,
      "lichen": 5922,
      "ears": 5923,
      "Ġheight": 5924,
      "Ġspecifically": 5925,
      "Ġnarr": 5926,
      "ĠFore": 5927,
      "Ġeinem": 5928,
      "Ġmm": 5929,
      "Ġsounds": 5930,
      "aks": 5931,
      "Ġvictim": 5932,
      "Ġlooks": 5933,
      "ĠÑģÑĥ": 5934,
      "athy": 5935,
      "Ġremoved": 5936,
      "iva": 5937,
      "Ġhelpful": 5938,
      "adian": 5939,
      "ulating": 5940,
      "Ġdeliver": 5941,
      "BN": 5942,
      "Ġextreme": 5943,
      "Ġdiscussion": 5944,
      "ÑıÑĤ": 5945,
      "raph": 5946,
      "CO": 5947,
      "ÙĩØ±": 5948,
      "ano": 5949,
      "Ġengage": 5950,
      "isis": 5951,
      "Ġmaintenance": 5952,
      "Ġclearly": 5953,
      "Ġreference": 5954,
      "Ġjobs": 5955,
      "Ġrecovery": 5956,
      "Ġradiation": 5957,
      "othe": 5958,
      "Ġprepared": 5959,
      "ãģĹãģŁ": 5960,
      "Ġfaith": 5961,
      "Ġpurposes": 5962,
      "Ġprincip": 5963,
      "ÙĪÙĨ": 5964,
      "ãĤ¸": 5965,
      "ba": 5966,
      "Ġfoss": 5967,
      "Ã¨n": 5968,
      "Ġboost": 5969,
      "aker": 5970,
      "gent": 5971,
      "Ġdent": 5972,
      "aria": 5973,
      "Ġliquid": 5974,
      "ĠÐºÐ¾Ð¼": 5975,
      "BC": 5976,
      "Ġconver": 5977,
      "hn": 5978,
      "Ġcomponent": 5979,
      "da": 5980,
      "active": 5981,
      "Ġlessons": 5982,
      "ĠMad": 5983,
      "Ġalgorith": 5984,
      "Ġcoord": 5985,
      "Ġkil": 5986,
      "Ġcolors": 5987,
      "name": 5988,
      "Ġunits": 5989,
      "ĠTechnology": 5990,
      "ÑĨÐ¸Ð¸": 5991,
      "ĠæĹ¥": 5992,
      "Ġunter": 5993,
      "igenous": 5994,
      "ãģĻãĤĭ": 5995,
      "à¹ĥà¸«": 5996,
      "Ġvehicles": 5997,
      "Ġkill": 5998,
      "urb": 5999,
      "roke": 6000,
      "ÐµÑģÑĤÐ²": 6001,
      "ato": 6002,
      "ĠÑĨ": 6003,
      "Ġisland": 6004,
      "Ġwealth": 6005,
      "Ġpages": 6006,
      "ĠJewish": 6007,
      "Ġfreedom": 6008,
      "Ġhttp": 6009,
      "ĠMake": 6010,
      "Ġdestroy": 6011,
      "Ġstorm": 6012,
      "Ġarticles": 6013,
      "ĠWeb": 6014,
      "ĠToday": 6015,
      "Now": 6016,
      "ffee": 6017,
      "ĠEnd": 6018,
      "Ġinstitutions": 6019,
      "Ġlib": 6020,
      "Ġdetailed": 6021,
      "ĠGreek": 6022,
      "Ġmetab": 6023,
      "Ð°Ð³": 6024,
      "Ġspent": 6025,
      "uls": 6026,
      "hl": 6027,
      "Ġbeneficial": 6028,
      "Ġels": 6029,
      "Ġoperating": 6030,
      "Hist": 6031,
      "Re": 6032,
      "Ġcere": 6033,
      "pres": 6034,
      "Ġreduction": 6035,
      "ĠWomen": 6036,
      "Ã¢": 6037,
      "Ġcircum": 6038,
      "Ġfacilit": 6039,
      "Ind": 6040,
      "Ġliver": 6041,
      "ĠMit": 6042,
      "ned": 6043,
      "Ġmentioned": 6044,
      "ĠCentral": 6045,
      "Ġtoxic": 6046,
      "west": 6047,
      "Ġlifestyle": 6048,
      "äºº": 6049,
      "ressed": 6050,
      "Ġrecyc": 6051,
      "Ġfacts": 6052,
      "Ġmeeting": 6053,
      "eli": 6054,
      "Ġvent": 6055,
      "Ġroots": 6056,
      "ĠElect": 6057,
      "ÑĢÐµÐ¼": 6058,
      "ĠGoogle": 6059,
      "AP": 6060,
      "Ġrein": 6061,
      "lie": 6062,
      "ĠSun": 6063,
      "ĠSant": 6064,
      "Ġbattery": 6065,
      "ÐµÐ½Ð¸Ðµ": 6066,
      "ĠLord": 6067,
      "Ġperman": 6068,
      "anges": 6069,
      "erals": 6070,
      "Ġnuclear": 6071,
      "gu": 6072,
      "ributed": 6073,
      "Ġsteel": 6074,
      "Ġfundamental": 6075,
      "ĠdÃ©": 6076,
      "Ġvom": 6077,
      "imm": 6078,
      "ny": 6079,
      "Ġcardi": 6080,
      "ja": 6081,
      "ĠPress": 6082,
      "Ġpaint": 6083,
      "Ġphone": 6084,
      "Ġauthors": 6085,
      "å¸": 6086,
      "Ġhour": 6087,
      "Ġclim": 6088,
      "Ġnicht": 6089,
      "ĠSaf": 6090,
      "Ġvast": 6091,
      "Ð°Ð½Ð¸Ñı": 6092,
      "ãģ¾": 6093,
      "Ġyouth": 6094,
      "hether": 6095,
      "Ð°ÑĪ": 6096,
      "Ġsignal": 6097,
      "ĠUsing": 6098,
      "Ġrecorded": 6099,
      "Ġsecret": 6100,
      "Ġinjuries": 6101,
      "ĠDirect": 6102,
      "ĠQue": 6103,
      "action": 6104,
      "Ġhttps": 6105,
      "ĠWind": 6106,
      "Ġheard": 6107,
      "Ġfamiliar": 6108,
      "à¸²à¸Ĭ": 6109,
      "Ġparticles": 6110,
      "Ġturned": 6111,
      "Ġlic": 6112,
      "Ġformation": 6113,
      "stra": 6114,
      "Ġcrisis": 6115,
      "stein": 6116,
      "ĠDisc": 6117,
      "Ġship": 6118,
      "ĠThomas": 6119,
      "Ġsuitable": 6120,
      "Ġmeant": 6121,
      "ÓĻÐ½": 6122,
      "Ġtaught": 6123,
      "ĠMars": 6124,
      "TS": 6125,
      "ĠEnergy": 6126,
      "ker": 6127,
      "inent": 6128,
      "ester": 6129,
      "uter": 6130,
      "ĠUnivers": 6131,
      "ĠJose": 6132,
      "Ġperspective": 6133,
      "Ġlatest": 6134,
      "ÑĢÐ¾": 6135,
      "Ġresponsibility": 6136,
      "ĠTor": 6137,
      "Ġnavig": 6138,
      "Ġwonder": 6139,
      "han": 6140,
      "othing": 6141,
      "Ġperiods": 6142,
      "ĠSupp": 6143,
      "oper": 6144,
      "cher": 6145,
      "Ġhighlight": 6146,
      "iverse": 6147,
      "Ġwet": 6148,
      "ĠStand": 6149,
      "ÑĥÑģ": 6150,
      "Ġmobile": 6151,
      "Ġvoice": 6152,
      "pre": 6153,
      "hol": 6154,
      "Or": 6155,
      "Ġhen": 6156,
      "Ġdecided": 6157,
      "Ġgoods": 6158,
      "uma": 6159,
      "ĠMac": 6160,
      "Ðĳ": 6161,
      "ĠTem": 6162,
      "Ġdoub": 6163,
      "rust": 6164,
      "Ġlose": 6165,
      "ĠØ§Ø³Øª": 6166,
      "Ġlan": 6167,
      "ĠUSA": 6168,
      "Ġpregnancy": 6169,
      "Ġfluid": 6170,
      "ãģ®æ": 6171,
      "Ġfootball": 6172,
      "Ġvor": 6173,
      "rence": 6174,
      "æľ¬": 6175,
      "Ġcoal": 6176,
      "Ġcenturies": 6177,
      "ĠSpace": 6178,
      "Ġappearance": 6179,
      "well": 6180,
      "Ġnoted": 6181,
      "à¹Ģà¸ģ": 6182,
      "Ġsud": 6183,
      "cules": 6184,
      "tee": 6185,
      "ĠForm": 6186,
      "Ġwest": 6187,
      "Ġshar": 6188,
      "Ġmorning": 6189,
      "ped": 6190,
      "auf": 6191,
      "ixt": 6192,
      "ĠÐ¿Ð¾Ð´": 6193,
      "ĠJer": 6194,
      "Ġcharge": 6195,
      "mas": 6196,
      "Ġdiam": 6197,
      "ĠTexas": 6198,
      "Ġexplains": 6199,
      "à¸Ńà¸£": 6200,
      "ii": 6201,
      "Ġtrain": 6202,
      "illa": 6203,
      "Ġhyper": 6204,
      "Ġchoices": 6205,
      "ypes": 6206,
      "Ġadding": 6207,
      "Ġexternal": 6208,
      "Ġkn": 6209,
      "ascular": 6210,
      "arrow": 6211,
      "Another": 6212,
      "ĠWhite": 6213,
      "ĠCongress": 6214,
      "ĠLeg": 6215,
      "Ð½Ð°Ñı": 6216,
      "That": 6217,
      "Ġpand": 6218,
      "osc": 6219,
      "Ġdepends": 6220,
      "ĠMiss": 6221,
      "ĠAlex": 6222,
      "ĠAtl": 6223,
      "Ġexecut": 6224,
      "Die": 6225,
      "Ġintended": 6226,
      "Although": 6227,
      "Ð¸Ð¹Ð½": 6228,
      "Ġabuse": 6229,
      "ĠÐµÐ»": 6230,
      "olit": 6231,
      "Ġworldwide": 6232,
      "ipped": 6233,
      "Ġpurs": 6234,
      "Ġhun": 6235,
      "ĠItal": 6236,
      "anguage": 6237,
      "Ġiz": 6238,
      "atal": 6239,
      "aka": 6240,
      "CC": 6241,
      "eper": 6242,
      "ĠMexico": 6243,
      "ville": 6244,
      "Ab": 6245,
      "riage": 6246,
      "agen": 6247,
      "Ġmedication": 6248,
      "ample": 6249,
      "organ": 6250,
      "weise": 6251,
      "ĠÃ¥": 6252,
      "Ġgro": 6253,
      "Ġstone": 6254,
      "MS": 6255,
      "ribe": 6256,
      "eme": 6257,
      "Pe": 6258,
      "erved": 6259,
      "Ġkinds": 6260,
      "Ġcombined": 6261,
      "iga": 6262,
      "ĠBre": 6263,
      "Ġber": 6264,
      "Ġbattle": 6265,
      "à¹Ģà¸¡": 6266,
      "Ġapproaches": 6267,
      "ÑĢÑĭ": 6268,
      "Ġresist": 6269,
      "Ġtouch": 6270,
      "Ġsaying": 6271,
      "add": 6272,
      "otic": 6273,
      "Ġdiversity": 6274,
      "cel": 6275,
      "ca": 6276,
      "enth": 6277,
      "inding": 6278,
      "à¤¾": 6279,
      "Ġkilled": 6280,
      "iti": 6281,
      "ãĥķ": 6282,
      "ãģ£ãģŁ": 6283,
      "ĠEngine": 6284,
      "obe": 6285,
      "Ġpapers": 6286,
      "ĠMain": 6287,
      "osite": 6288,
      "Ġdra": 6289,
      "El": 6290,
      "ĠDise": 6291,
      "aten": 6292,
      "Ġpil": 6293,
      "Ġagricultural": 6294,
      "tra": 6295,
      "Ġsensitive": 6296,
      "icks": 6297,
      "Ġskill": 6298,
      "Ġdespite": 6299,
      "Ġindicate": 6300,
      "lik": 6301,
      "Ġnaturally": 6302,
      "åŃ¦": 6303,
      "Ġfacilities": 6304,
      "ãĤĪ": 6305,
      "isters": 6306,
      "Ġstars": 6307,
      "ĠSum": 6308,
      "ĠDiv": 6309,
      "ĠEss": 6310,
      "Most": 6311,
      "Ġsquare": 6312,
      "Ġsimpl": 6313,
      "Ġdir": 6314,
      "Ġrul": 6315,
      "Ð»Ñĭ": 6316,
      "Ġkept": 6317,
      "kan": 6318,
      "ĠOut": 6319,
      "Ã¼ck": 6320,
      "ÛĮØ±": 6321,
      "Ġshowing": 6322,
      "Ġharvest": 6323,
      "ĠMass": 6324,
      "ups": 6325,
      "ĠKore": 6326,
      "iday": 6327,
      "Ġbright": 6328,
      "Ġonto": 6329,
      "EL": 6330,
      "Ġnetworks": 6331,
      "Ġchallenging": 6332,
      "Ġdetermined": 6333,
      "ãĥŃ": 6334,
      "Ð²Ð°": 6335,
      "Ġtitle": 6336,
      "ĠThus": 6337,
      "ĠThrough": 6338,
      "Ø¦": 6339,
      "Ð¸Ð½Ð°": 6340,
      "free": 6341,
      "Ġelev": 6342,
      "ĠRad": 6343,
      "Ġinstrument": 6344,
      "Ġabsorb": 6345,
      "Ġpump": 6346,
      "Ġprotected": 6347,
      "ibilities": 6348,
      "nes": 6349,
      "Ġsusp": 6350,
      "imal": 6351,
      "ĠLife": 6352,
      "Ġhabits": 6353,
      "fall": 6354,
      "resents": 6355,
      "Ġsupported": 6356,
      "Ġmuse": 6357,
      "Ġleader": 6358,
      "ĠAdditionally": 6359,
      "Ġphenomen": 6360,
      "ompl": 6361,
      "Ġcm": 6362,
      "Ġexpression": 6363,
      "asp": 6364,
      "oughly": 6365,
      "=\"": 6366,
      "tan": 6367,
      "ushing": 6368,
      "ĠCam": 6369,
      "Ġrecognize": 6370,
      "Ġbow": 6371,
      "ĠOld": 6372,
      "Ġdouble": 6373,
      "nam": 6374,
      "iced": 6375,
      "chers": 6376,
      "under": 6377,
      "Ġfrequency": 6378,
      "mann": 6379,
      "Ġbrief": 6380,
      "Ã¤m": 6381,
      "Ð¾ÑĤÐ¾ÑĢ": 6382,
      "itud": 6383,
      "Ðŀ": 6384,
      "arter": 6385,
      "ema": 6386,
      "Ä±": 6387,
      "Ġhabitat": 6388,
      "asive": 6389,
      "ĠFranc": 6390,
      "Ġrub": 6391,
      "Ġchain": 6392,
      "Ġcrops": 6393,
      "ener": 6394,
      "ĠService": 6395,
      "å±": 6396,
      "ĠEv": 6397,
      "Ġgenerate": 6398,
      "astern": 6399,
      "Ġprocedures": 6400,
      "Ġastron": 6401,
      "å¾": 6402,
      "ky": 6403,
      "ĠÐ¿Ð¾Ñģ": 6404,
      "ĠGet": 6405,
      "Ġdial": 6406,
      "ĠØµ": 6407,
      "ĠRobert": 6408,
      "Ġreligion": 6409,
      "Ġgrown": 6410,
      "Ġconsists": 6411,
      "à¸²à¸Ħ": 6412,
      "nings": 6413,
      "arant": 6414,
      "ĠJul": 6415,
      "Ġmovements": 6416,
      "Ġmanner": 6417,
      "Äģ": 6418,
      "Ġfoundation": 6419,
      "Ġfro": 6420,
      "Ġprepare": 6421,
      "izer": 6422,
      "Ġnom": 6423,
      "Ġstages": 6424,
      "Ġoffered": 6425,
      "ST": 6426,
      "chaft": 6427,
      "alled": 6428,
      "agers": 6429,
      "Ġobvious": 6430,
      "Ġtransition": 6431,
      "ĠManagement": 6432,
      "Ġcollected": 6433,
      "igure": 6434,
      "Ð¸Ñĺ": 6435,
      "Ġtypical": 6436,
      "isher": 6437,
      "Ġble": 6438,
      "çī": 6439,
      "Ġresidents": 6440,
      "ishes": 6441,
      "çµ": 6442,
      "Ġpref": 6443,
      "ĠMedical": 6444,
      "Ġvoc": 6445,
      "Ġcreates": 6446,
      "pat": 6447,
      "ĠGold": 6448,
      "ĠDesign": 6449,
      "ancer": 6450,
      "Ġsan": 6451,
      "Ġsuffering": 6452,
      "ĠFoundation": 6453,
      "ela": 6454,
      "Ġwalls": 6455,
      "Ġnit": 6456,
      "Ġfill": 6457,
      "Ġid": 6458,
      "Ġfertil": 6459,
      "Ġbehaviour": 6460,
      "Ġrepresents": 6461,
      "Ġintake": 6462,
      "Ġguidelines": 6463,
      "oral": 6464,
      "rupp": 6465,
      "Ġchart": 6466,
      "Ġtraffic": 6467,
      "Ġstarts": 6468,
      "ĠArab": 6469,
      "More": 6470,
      "Ġdoll": 6471,
      "Ġfabric": 6472,
      "Ð¶Ðµ": 6473,
      "Ġgirls": 6474,
      "ĠCourt": 6475,
      "Ġsend": 6476,
      "aughter": 6477,
      "Ġadvoc": 6478,
      "ĠFurther": 6479,
      "Ð¸ÑĨ": 6480,
      "×ĺ": 6481,
      "Ġsamples": 6482,
      "Ġsubjects": 6483,
      "Ð¢": 6484,
      "acific": 6485,
      "Øº": 6486,
      "Ðľ": 6487,
      "uilding": 6488,
      "Ġliv": 6489,
      "à¸Ł": 6490,
      "Ġstudied": 6491,
      "rolog": 6492,
      "ĠNASA": 6493,
      "âĢĻ.": 6494,
      "ĠAdd": 6495,
      "ĠGovernment": 6496,
      "ĠUp": 6497,
      "ĠInstead": 6498,
      "Ġagriculture": 6499,
      "Ġspl": 6500,
      "'ll": 6501,
      "verty": 6502,
      "ault": 6503,
      "Ġcloud": 6504,
      "ãģĦãĤĭ": 6505,
      "Ġdecrease": 6506,
      "Ġapart": 6507,
      "Ġraised": 6508,
      "Ġcars": 6509,
      "Do": 6510,
      "Ġprevention": 6511,
      "igt": 6512,
      "olester": 6513,
      "itness": 6514,
      "Ġfer": 6515,
      "Ġcontem": 6516,
      "Ġreached": 6517,
      "RO": 6518,
      "Ġindustries": 6519,
      "field": 6520,
      "ĠISBN": 6521,
      "indu": 6522,
      "faces": 6523,
      "pan": 6524,
      "Ġkan": 6525,
      "SA": 6526,
      "ÐºÐ¾Ð²": 6527,
      "Ġartificial": 6528,
      "Ġsouthern": 6529,
      "ĠEmp": 6530,
      "à¹Ģà¸Ĺ": 6531,
      "Ġstret": 6532,
      "Ġnorthern": 6533,
      "ache": 6534,
      "ulin": 6535,
      "ĠCarol": 6536,
      "Ġproteins": 6537,
      "Ġvalid": 6538,
      "Ġages": 6539,
      "ĠCD": 6540,
      "mary": 6541,
      "Ġrural": 6542,
      "Le": 6543,
      "Ġlaun": 6544,
      "hips": 6545,
      "ãĤ«": 6546,
      "Ġleadership": 6547,
      "Ġfiber": 6548,
      "omach": 6549,
      "ĠÑĢÐ°Ð·": 6550,
      "ĠVirgin": 6551,
      "ÑĻ": 6552,
      "ĠAp": 6553,
      "roc": 6554,
      "ĠExpl": 6555,
      "Ġfasc": 6556,
      "oto": 6557,
      "Ġmotion": 6558,
      "Ġcoffee": 6559,
      "çĽ": 6560,
      "Ġrelax": 6561,
      "Ġpoverty": 6562,
      "acts": 6563,
      "andom": 6564,
      "Ġcourses": 6565,
      "Ġtested": 6566,
      "Ġdomin": 6567,
      "Ġneut": 6568,
      "Ġbreathing": 6569,
      "eller": 6570,
      "Ġyw": 6571,
      "gely": 6572,
      "Ġwire": 6573,
      "Ġoffering": 6574,
      "ÑģÐµ": 6575,
      "Ġmillions": 6576,
      "ĠSecond": 6577,
      "long": 6578,
      "Ġwildlife": 6579,
      "Ġsatisf": 6580,
      "Ġstem": 6581,
      "Ġpoly": 6582,
      "ette": 6583,
      "ĠDel": 6584,
      "ĠFlor": 6585,
      "Ġsubstance": 6586,
      "Ġenable": 6587,
      "Ð°Ð»Ð°": 6588,
      "Ġthin": 6589,
      "Ġgut": 6590,
      "Ġslightly": 6591,
      "ails": 6592,
      "Ġgenes": 6593,
      "Ġpoet": 6594,
      "Ġexpensive": 6595,
      "olesterol": 6596,
      "à¹Ģà¸¥": 6597,
      "Ġ()": 6598,
      "ĠNav": 6599,
      "ĠTer": 6600,
      "Ġgod": 6601,
      "Ð¾ÑĢÐ°": 6602,
      "ĠTreat": 6603,
      "ĠCath": 6604,
      "ventional": 6605,
      "Ġtelev": 6606,
      "olars": 6607,
      "Ġmonitor": 6608,
      "ÙĥÙĪÙĥØ¨Ùĩ": 6609,
      "Ġbrother": 6610,
      "ells": 6611,
      "ĠBoth": 6612,
      "Ġfle": 6613,
      "Ġflat": 6614,
      "Ġapprec": 6615,
      "....": 6616,
      "Ġrapidly": 6617,
      "abe": 6618,
      "Ġhandle": 6619,
      "Ġmatch": 6620,
      "Ġinfected": 6621,
      "ĠPower": 6622,
      "ĠProfessor": 6623,
      "ĠCare": 6624,
      "Ġll": 6625,
      "Ð½ÑĭÒ£": 6626,
      "level": 6627,
      "ido": 6628,
      "Ġwaters": 6629,
      "Ã¨s": 6630,
      "ĠBC": 6631,
      "Ġsupporting": 6632,
      "Ġgrand": 6633,
      "Ġgovernments": 6634,
      "Ġleaving": 6635,
      "ĠId": 6636,
      "rations": 6637,
      "Ġath": 6638,
      "From": 6639,
      "Ġcutting": 6640,
      "Ġconclud": 6641,
      "No": 6642,
      "Ġjustice": 6643,
      "iker": 6644,
      "Ġbones": 6645,
      "Ġcorresp": 6646,
      "Ġnurs": 6647,
      "ador": 6648,
      "Ġbiological": 6649,
      "ĠØ§Ùĩ": 6650,
      "win": 6651,
      "onia": 6652,
      "Ġcontrolled": 6653,
      "Ġclosely": 6654,
      "icy": 6655,
      "Ġletters": 6656,
      "rif": 6657,
      "ossible": 6658,
      "Ġvisible": 6659,
      "ãģĤãĤĭ": 6660,
      "Ġinstruction": 6661,
      "liche": 6662,
      "Ġmaximum": 6663,
      "je": 6664,
      "ĠCivil": 6665,
      "estival": 6666,
      "Ġraise": 6667,
      "Ġgather": 6668,
      "Ġbrown": 6669,
      "ante": 6670,
      "Ġcandid": 6671,
      "ashion": 6672,
      "Ġfirm": 6673,
      "Ġabsol": 6674,
      "stitution": 6675,
      "ĠMo": 6676,
      "Des": 6677,
      "uer": 6678,
      "Ġregulations": 6679,
      "unte": 6680,
      "hm": 6681,
      "ĠPost": 6682,
      "Ġfiles": 6683,
      "ĠÐĹ": 6684,
      "elled": 6685,
      "Ġextract": 6686,
      "ĠØ·": 6687,
      "ĠÐķ": 6688,
      "Ġsuffer": 6689,
      "Ġsnow": 6690,
      "Ġchann": 6691,
      "Ġstudying": 6692,
      "Ġefter": 6693,
      "ĠList": 6694,
      "riz": 6695,
      "Ġlargely": 6696,
      "ĠMag": 6697,
      "Ġstick": 6698,
      "hav": 6699,
      "Ġvirtual": 6700,
      "Ġspiritual": 6701,
      "×¨": 6702,
      "Ġcertainly": 6703,
      "Ġdistrict": 6704,
      "Ġpel": 6705,
      "ĠIN": 6706,
      "Ġfloor": 6707,
      "ÐµÐºÑĤ": 6708,
      "Ġimmun": 6709,
      "Ġsets": 6710,
      "ĠTV": 6711,
      "Ġei": 6712,
      "Ġerr": 6713,
      "Ġmachines": 6714,
      "spec": 6715,
      "ĠMill": 6716,
      "ĠControl": 6717,
      "RI": 6718,
      "Ð¾Ð½Ð°": 6719,
      "bur": 6720,
      "Ġban": 6721,
      "Ð°ÑĤÑĮ": 6722,
      "Ð³Ñĭ": 6723,
      "ĠMedicine": 6724,
      "Ġsatell": 6725,
      "à¸«à¸¥": 6726,
      "neg": 6727,
      "ĠLatin": 6728,
      "Ġrecip": 6729,
      "century": 6730,
      "yth": 6731,
      "pel": 6732,
      "Ġflower": 6733,
      "Ð±ÑĢ": 6734,
      "Sc": 6735,
      "Ġfelt": 6736,
      "hist": 6737,
      "Ġsolve": 6738,
      "ĠPeter": 6739,
      "Ġcultiv": 6740,
      "Ã¶d": 6741,
      "Ġrespir": 6742,
      "esity": 6743,
      "Ġmedium": 6744,
      "Ġfinally": 6745,
      "ĠLake": 6746,
      "ĠÐ¸Ð¼": 6747,
      "ĠMem": 6748,
      "iotics": 6749,
      "Ġmac": 6750,
      "Ġroutine": 6751,
      "Ġrecognized": 6752,
      "Ġ],": 6753,
      "Ġforced": 6754,
      "Ð½Ð¾Ð¼": 6755,
      "?âĢĿ": 6756,
      "à¥į": 6757,
      "umber": 6758,
      "Under": 6759,
      "Ġcommunicate": 6760,
      "ĠAus": 6761,
      "exp": 6762,
      "Ġprices": 6763,
      "ĠÚ©Ùĩ": 6764,
      "Ġstock": 6765,
      "Ġtalking": 6766,
      "ĠCommon": 6767,
      "ĠBritain": 6768,
      "gt": 6769,
      "riend": 6770,
      "Ġpandemic": 6771,
      "Ġcomputers": 6772,
      "key": 6773,
      "Ġrail": 6774,
      "ĠHistor": 6775,
      "Ġdivided": 6776,
      "Ġcouple": 6777,
      "ĠWild": 6778,
      "American": 6779,
      "Ġsufficient": 6780,
      "orter": 6781,
      "ĠVict": 6782,
      "Ġbudget": 6783,
      "ĠØ§ÙĩÙĦ": 6784,
      "Ġfran": 6785,
      "Ġwel": 6786,
      "Ġresil": 6787,
      "Ġsyndrome": 6788,
      "ĠMicro": 6789,
      "ãģı": 6790,
      "Ġelectronic": 6791,
      "Ġsick": 6792,
      "Ġnations": 6793,
      "Ġplus": 6794,
      "Ġeinen": 6795,
      "ĠCharles": 6796,
      "AA": 6797,
      "During": 6798,
      "ĠGroup": 6799,
      "Ġkon": 6800,
      "æŃ": 6801,
      "Ġexplained": 6802,
      "usiness": 6803,
      "Ġhundreds": 6804,
      "Ġcyber": 6805,
      "stream": 6806,
      "Ġfung": 6807,
      "Ġdocuments": 6808,
      "Ġargument": 6809,
      "rant": 6810,
      "asure": 6811,
      "Ġzwe": 6812,
      "ĠÃ©s": 6813,
      "Ġparam": 6814,
      "Ġframework": 6815,
      "Ġconsumers": 6816,
      "Ġfrag": 6817,
      "ĠBur": 6818,
      "Ġ*": 6819,
      "ifies": 6820,
      "ÑħÐ¾Ð´": 6821,
      "Ġsweet": 6822,
      "à¸Īà¸²à¸ģ": 6823,
      "ani": 6824,
      "Us": 6825,
      "è¦": 6826,
      "Web": 6827,
      "Ġshel": 6828,
      "ĠRob": 6829,
      "Ġteams": 6830,
      "Ġprogramming": 6831,
      "mic": 6832,
      "Ġproposed": 6833,
      "ĠAtt": 6834,
      "Ġadopt": 6835,
      "iana": 6836,
      "ĠPC": 6837,
      "Ġconcentration": 6838,
      "éĩ": 6839,
      "Ġafford": 6840,
      "Ġprompt": 6841,
      "ingly": 6842,
      "Dr": 6843,
      "Ġexchange": 6844,
      "à¸¹à¹ī": 6845,
      "Ġbehaviors": 6846,
      "Ġinnovation": 6847,
      "Ġfollows": 6848,
      "ĠLouis": 6849,
      "ĠGood": 6850,
      "Ġinterests": 6851,
      "åº": 6852,
      "Ġdownload": 6853,
      "Ġrelative": 6854,
      "Ġstored": 6855,
      "gal": 6856,
      "Ġdoctors": 6857,
      "Ġsubstant": 6858,
      "Ġreaders": 6859,
      "ĠTwo": 6860,
      "eut": 6861,
      "Ġstrengthen": 6862,
      "Ġproducing": 6863,
      "Ġà¸Ħ": 6864,
      "à¹Ĥà¸Ķ": 6865,
      "ĠHall": 6866,
      ");": 6867,
      "Ġarchitecture": 6868,
      "Bl": 6869,
      "Ġinterview": 6870,
      "ĠLu": 6871,
      "Ġdedicated": 6872,
      "OT": 6873,
      "Con": 6874,
      "atu": 6875,
      "ĠLab": 6876,
      "ĠPan": 6877,
      "eless": 6878,
      "Ø±Ø¯": 6879,
      "Ġadequ": 6880,
      "rer": 6881,
      "Ġsupports": 6882,
      "dule": 6883,
      "ĠCamp": 6884,
      "ĠSing": 6885,
      "Ġdiscovery": 6886,
      "Ġmarine": 6887,
      "ÑĥÐ¿": 6888,
      "Ġotherwise": 6889,
      "Ġselected": 6890,
      "inating": 6891,
      "which": 6892,
      "ĠÑģÐ¾ÑģÑĤ": 6893,
      "sis": 6894,
      "à¸ŀà¸£à¸°": 6895,
      "Ġphr": 6896,
      "ĠKeep": 6897,
      "lers": 6898,
      "Ġlabel": 6899,
      "à¹Ģà¸Ĥ": 6900,
      "Ġcapable": 6901,
      "tage": 6902,
      "Ġfunding": 6903,
      "Ġment": 6904,
      "Ġdiscrim": 6905,
      "ÙĪÛĮ": 6906,
      "tic": 6907,
      "ali": 6908,
      "ĠEs": 6909,
      "ront": 6910,
      "Ġpolice": 6911,
      "Ġstomach": 6912,
      "Ġtea": 6913,
      "Ġspaces": 6914,
      "ÑĥÐ¶": 6915,
      "Ġaer": 6916,
      "with": 6917,
      "ĠHIV": 6918,
      "SE": 6919,
      "ĠBook": 6920,
      "Ġhappened": 6921,
      "Ġcolour": 6922,
      "Ġpour": 6923,
      "sembly": 6924,
      "ĠAnother": 6925,
      "ĠâĢĻ": 6926,
      "Ġvillage": 6927,
      "Ġcultures": 6928,
      "Ġnur": 6929,
      "Ġpup": 6930,
      "Ġchildhood": 6931,
      "cest": 6932,
      "Ġrequest": 6933,
      "à¹Ģà¸Ķ": 6934,
      "eko": 6935,
      "itat": 6936,
      "Ġmassive": 6937,
      "uÃŁ": 6938,
      "Ġclub": 6939,
      "ĠInformation": 6940,
      "»į": 6941,
      "Ġdream": 6942,
      "tty": 6943,
      "ĠHyd": 6944,
      "aden": 6945,
      "Ġmeasured": 6946,
      "Ġaudience": 6947,
      "Ġsubsequ": 6948,
      "ĠSil": 6949,
      "ogue": 6950,
      "ĠÑĤÐ°Ðº": 6951,
      "Ġcustomers": 6952,
      "Ġreduces": 6953,
      "æĺ": 6954,
      "ĠBerlin": 6955,
      "Ġthor": 6956,
      "Ð¾Ðµ": 6957,
      "amily": 6958,
      "Ġconfidence": 6959,
      "ugh": 6960,
      "iated": 6961,
      "Ġunderst": 6962,
      "ifer": 6963,
      "Ġanswers": 6964,
      "Ġcorpor": 6965,
      "Ġraw": 6966,
      "åĭ": 6967,
      "iÃ¨": 6968,
      "Ġcatch": 6969,
      "Ġconsistent": 6970,
      "right": 6971,
      "Ġminimum": 6972,
      "Ġaccessible": 6973,
      "Ġspeaking": 6974,
      "Ġsow": 6975,
      "à¸²à¸ª": 6976,
      "Ġextent": 6977,
      "Ġexercises": 6978,
      "ĠNews": 6979,
      "Ġinner": 6980,
      "Ġaccompl": 6981,
      "ĠCommission": 6982,
      "Ð¾Ð³ÑĢÐ°": 6983,
      "ĠAustralian": 6984,
      "Ġsharing": 6985,
      "Ġvs": 6986,
      "|-": 6987,
      "igare": 6988,
      "Ø§Ø¯ÛĮ": 6989,
      "Ġenab": 6990,
      "inations": 6991,
      "Ġcats": 6992,
      "Ġlots": 6993,
      "SS": 6994,
      "Ġroof": 6995,
      "Ġdrain": 6996,
      "ÐµÐ¿": 6997,
      "ĠÎ": 6998,
      "New": 6999,
      "Ġbiz": 7000,
      "wing": 7001,
      "ref": 7002,
      "Ġdust": 7003,
      "Ġwhom": 7004,
      "Ġhorse": 7005,
      "Ġà¸ª": 7006,
      "Ġhappy": 7007,
      "ÑĢÐ¸": 7008,
      "Ġimmig": 7009,
      "Ġformal": 7010,
      "hus": 7011,
      "tle": 7012,
      "itors": 7013,
      "Ġsport": 7014,
      "Ġsod": 7015,
      "erna": 7016,
      "iak": 7017,
      "Ġcollaboration": 7018,
      "Ġsettings": 7019,
      "Ġchapter": 7020,
      "Ġneuro": 7021,
      "Ġconnections": 7022,
      "å·": 7023,
      "Ġadvantages": 7024,
      "este": 7025,
      "Ġmild": 7026,
      "ĠRoyal": 7027,
      "urd": 7028,
      "Ġeveryday": 7029,
      "Ġmun": 7030,
      "Ġtid": 7031,
      "Ġsignificance": 7032,
      "hyd": 7033,
      "çĻ": 7034,
      "Ġinject": 7035,
      "ĠDas": 7036,
      "Ġshift": 7037,
      "Ġtiny": 7038,
      "Ġinches": 7039,
      "ĠCult": 7040,
      "Ġca": 7041,
      "ĠDiff": 7042,
      "Ġvulnerable": 7043,
      "Ġinsects": 7044,
      "agram": 7045,
      "Ġgreatest": 7046,
      "Ġleaf": 7047,
      "Ġunderlying": 7048,
      "Ġcholesterol": 7049,
      "ifications": 7050,
      "Ġregul": 7051,
      "osal": 7052,
      "Ġworkshe": 7053,
      "amins": 7054,
      "Ġeast": 7055,
      "à¸²à¸¥": 7056,
      "ãĤ£": 7057,
      "ensus": 7058,
      "ĠDig": 7059,
      "Ġ):": 7060,
      "Ġsmooth": 7061,
      "ĠSea": 7062,
      "Ġnam": 7063,
      "ĠVis": 7064,
      "ÚĨ": 7065,
      "Ġsurvival": 7066,
      "Ġdiscipl": 7067,
      "Ġoccurred": 7068,
      "idden": 7069,
      "ĠMiddle": 7070,
      "yles": 7071,
      "Ġkom": 7072,
      "ÛĮÙĦÙħ": 7073,
      "Ġsudden": 7074,
      "Ġworse": 7075,
      "Ġlooked": 7076,
      "ĠRussian": 7077,
      "Ġsecondary": 7078,
      "Ġcart": 7079,
      "Ġexistence": 7080,
      "Ð¾Ñĺ": 7081,
      "Ġregional": 7082,
      "Ġrenewable": 7083,
      "Ġlisted": 7084,
      "Ġfeedback": 7085,
      "Ġinsights": 7086,
      "Ġviews": 7087,
      "Ġextensive": 7088,
      "åĮ": 7089,
      "word": 7090,
      "ĠÃ¥r": 7091,
      "Ġstruggle": 7092,
      "vant": 7093,
      "Ġgall": 7094,
      "ĠNach": 7095,
      "åĩ": 7096,
      "Ġzit": 7097,
      "ĠArmy": 7098,
      "Ġcircumst": 7099,
      "Ġtransportation": 7100,
      "ãĥĨ": 7101,
      "riers": 7102,
      "ÐµÐ½Ð¸": 7103,
      "Ġdomestic": 7104,
      "ÓĻÐ¼": 7105,
      "ĠStep": 7106,
      "ĠAbout": 7107,
      "Ġcomment": 7108,
      "Ġparties": 7109,
      "Ġcontaining": 7110,
      "var": 7111,
      "Ġpsychological": 7112,
      "Ġexplan": 7113,
      "reich": 7114,
      "ĠRussia": 7115,
      "å°": 7116,
      "normal": 7117,
      "Am": 7118,
      "Ġacids": 7119,
      "ĠPacific": 7120,
      "Ġwalking": 7121,
      "Ġtrial": 7122,
      "Ġreliable": 7123,
      "ĠNord": 7124,
      "Ġreturned": 7125,
      "Ġwife": 7126,
      "Ġauthority": 7127,
      "Ġmood": 7128,
      "ĠFlorida": 7129,
      "ÐĶ": 7130,
      "Ġpara": 7131,
      "edy": 7132,
      "Ø§ÙĨÛĮ": 7133,
      "arre": 7134,
      "Ġremained": 7135,
      "ĠSee": 7136,
      "Ġpreventing": 7137,
      "lines": 7138,
      "ãģį": 7139,
      "ĠÐºÐ¾ÑĤÐ¾ÑĢ": 7140,
      "Ġmere": 7141,
      "ĠInst": 7142,
      "Ġintegr": 7143,
      "Ġartists": 7144,
      "Ġartist": 7145,
      "Ø§Ø´": 7146,
      "Ġaccounts": 7147,
      "ĠÓ©": 7148,
      "Ġachieved": 7149,
      "Ġultimately": 7150,
      "alysis": 7151,
      "ĠStr": 7152,
      "Ġsignals": 7153,
      "Ø§Øµ": 7154,
      "Ġnoise": 7155,
      "Ġfossil": 7156,
      "Ġdatabase": 7157,
      "ãĤ°": 7158,
      "DF": 7159,
      "Ġtruly": 7160,
      "ĠKnow": 7161,
      "Ġsides": 7162,
      "Ġgal": 7163,
      "Ġkit": 7164,
      "Ġbio": 7165,
      "ĠStudies": 7166,
      "writ": 7167,
      "Ġaccomp": 7168,
      "Ġconcerned": 7169,
      "ieder": 7170,
      "Ġmoisture": 7171,
      "èª": 7172,
      "Ġconcrete": 7173,
      "ĠOl": 7174,
      "Ġcomposition": 7175,
      "ĠScient": 7176,
      "ĠWell": 7177,
      "bour": 7178,
      "gien": 7179,
      "Ġwindow": 7180,
      "Ġcarefully": 7181,
      "Ġfigures": 7182,
      "making": 7183,
      "ĠEnt": 7184,
      "Ġnormally": 7185,
      "Ð¾ÑģÑģ": 7186,
      "Ġminerals": 7187,
      "Ġcleaning": 7188,
      "Ġconscious": 7189,
      "ĠBible": 7190,
      "Ġsurvive": 7191,
      "ĠÑģÐ¿": 7192,
      "Ġdisapp": 7193,
      "Ġbiggest": 7194,
      "ropical": 7195,
      "ĠAC": 7196,
      "ĠHand": 7197,
      "Ġwestern": 7198,
      "rÃ¥": 7199,
      "iled": 7200,
      "ima": 7201,
      "Ġportion": 7202,
      "ĠGeorg": 7203,
      "what": 7204,
      "ĠEnvironmental": 7205,
      "last": 7206,
      "hent": 7207,
      "Ġgrav": 7208,
      "Ġobst": 7209,
      "Ġol": 7210,
      "Ġlocations": 7211,
      "ritis": 7212,
      "icious": 7213,
      "Ġdecline": 7214,
      "Ġbiod": 7215,
      "Ġroles": 7216,
      "Ġrhy": 7217,
      "Ġneu": 7218,
      "Ġlibrary": 7219,
      "Ġguidance": 7220,
      "Comp": 7221,
      "Ġsupplement": 7222,
      "La": 7223,
      "essions": 7224,
      "Ġnerve": 7225,
      "ĠHome": 7226,
      "×¢×¨": 7227,
      "Ġdut": 7228,
      "Ðĵ": 7229,
      "ĠExper": 7230,
      "Ġrevealed": 7231,
      "Ġdecide": 7232,
      "Ġforests": 7233,
      "Ġacts": 7234,
      "Ġongoing": 7235,
      "Ø®Ø·": 7236,
      "Ġsuccessfully": 7237,
      "ĠSym": 7238,
      "HO": 7239,
      "ĠJo": 7240,
      "Ġuniversity": 7241,
      "amen": 7242,
      "Ġappeared": 7243,
      "uan": 7244,
      "ĠCap": 7245,
      "Ã¤tt": 7246,
      "Ġoriginally": 7247,
      "Can": 7248,
      "Ġudaler": 7249,
      "abul": 7250,
      "oir": 7251,
      "produ": 7252,
      "Ġcalcium": 7253,
      "Ġbreath": 7254,
      "ĠÐ°Ð²": 7255,
      "Ġtoler": 7256,
      "ĠEconom": 7257,
      "Ġfilms": 7258,
      "Ġconclusion": 7259,
      "Ġresol": 7260,
      "Ġphotos": 7261,
      "uing": 7262,
      "Ġinteractions": 7263,
      "Ġsuggested": 7264,
      "Ð¸ÑĤÐµÐ»ÑĮ": 7265,
      "Ġpig": 7266,
      "Ġfif": 7267,
      "Ġgenerated": 7268,
      "IP": 7269,
      "ä¸Ń": 7270,
      "People": 7271,
      "ĠIP": 7272,
      "Ġstands": 7273,
      "hemical": 7274,
      "ĠHenry": 7275,
      "Ġtransmission": 7276,
      "zo": 7277,
      "Ġnarrow": 7278,
      "ĠAN": 7279,
      "ĠAcademy": 7280,
      "ĠÙħØ¹": 7281,
      "à¸¢à¸Ļ": 7282,
      "iform": 7283,
      "Ð½Ð´": 7284,
      "Ġclosed": 7285,
      "Ġdescribes": 7286,
      "ĠTime": 7287,
      "look": 7288,
      "rency": 7289,
      "Ġrestrict": 7290,
      "Ġsubstances": 7291,
      "ĠÃ¤ven": 7292,
      "Ã¯": 7293,
      "ĠMichael": 7294,
      "ĠHa": 7295,
      "Ġdepth": 7296,
      "ĠUr": 7297,
      "Ġusage": 7298,
      "Ġintervention": 7299,
      "hma": 7300,
      "ĠCompany": 7301,
      "Ġaims": 7302,
      "Ġopened": 7303,
      "Ġwriter": 7304,
      "Ġstated": 7305,
      "ekt": 7306,
      "itza": 7307,
      "Ġpictures": 7308,
      "Ġmanaging": 7309,
      "Ġyr": 7310,
      "ĠBudd": 7311,
      "Ġinformed": 7312,
      "ÑĤÐ¾ÑĢ": 7313,
      "Ġaward": 7314,
      "Ġcalls": 7315,
      "Ġdeeper": 7316,
      "ÑĬ": 7317,
      "Ġmoon": 7318,
      "orrow": 7319,
      "weight": 7320,
      "ĠEU": 7321,
      "Ġcas": 7322,
      "umes": 7323,
      "Ġmedic": 7324,
      "Ġdiscussed": 7325,
      "Ġopening": 7326,
      "ĠLeague": 7327,
      "Â».": 7328,
      "Ġdin": 7329,
      "Other": 7330,
      "Ġpaid": 7331,
      "Ġwaves": 7332,
      "ĠAcc": 7333,
      "Ġinteraction": 7334,
      "å½": 7335,
      "ais": 7336,
      "Ð¸Ð»ÑĮ": 7337,
      "Ġod": 7338,
      "ĠOpen": 7339,
      "ĠÐ¿ÑĢÐµÐ´": 7340,
      "ĠGlobal": 7341,
      "Read": 7342,
      "ĠCanadian": 7343,
      "Ġdifficulty": 7344,
      "à¸«à¸Ļ": 7345,
      "inking": 7346,
      "Ġmanaged": 7347,
      "Ġimmediate": 7348,
      "TM": 7349,
      "Ø£": 7350,
      "Ġpermanent": 7351,
      "Ġveter": 7352,
      "ãĤģ": 7353,
      "gers": 7354,
      "Ġregist": 7355,
      "Ġseeing": 7356,
      "ÑįÑį": 7357,
      "Ð´Ñĭ": 7358,
      "atever": 7359,
      "ĠSie": 7360,
      "Ġproduces": 7361,
      "ä¸Ģ": 7362,
      "ĠFree": 7363,
      "Cont": 7364,
      "Ġoedd": 7365,
      "arn": 7366,
      "sey": 7367,
      "Stud": 7368,
      "ocratic": 7369,
      "Ġassistance": 7370,
      "ĠPract": 7371,
      "Ġpurchase": 7372,
      "Ġtaste": 7373,
      "itar": 7374,
      "'ve": 7375,
      "osph": 7376,
      "ellect": 7377,
      "azing": 7378,
      "Ġdrawing": 7379,
      "ãģĭãĤī": 7380,
      "Ġteen": 7381,
      "Ġvessels": 7382,
      "agues": 7383,
      "Ġsmoking": 7384,
      "eria": 7385,
      "spect": 7386,
      "Ġdistingu": 7387,
      "Ġimper": 7388,
      "CD": 7389,
      "Ġcircuit": 7390,
      "ĊĠĠĠĠĠĠĠĠ": 7391,
      "Ġhem": 7392,
      "ĠLong": 7393,
      "Ġreform": 7394,
      "cknow": 7395,
      "Ġprinciple": 7396,
      "ĠMuslim": 7397,
      "ipping": 7398,
      "Ġselection": 7399,
      "Ġfilled": 7400,
      "Ġrecognition": 7401,
      "Ġtwice": 7402,
      "zil": 7403,
      "Ġextended": 7404,
      "gans": 7405,
      "Ġpersist": 7406,
      "Ġà¸¡": 7407,
      "Ġedge": 7408,
      "Ġje": 7409,
      "ĠIll": 7410,
      "Ġingredients": 7411,
      "Ġinstructions": 7412,
      "Ġneck": 7413,
      "bes": 7414,
      "ampions": 7415,
      "ierte": 7416,
      "Ġcarb": 7417,
      "hoeddwyd": 7418,
      "åį": 7419,
      "sts": 7420,
      "ÑĢÐ¾Ð²": 7421,
      "Ġhydrogen": 7422,
      "Ġplate": 7423,
      "bran": 7424,
      "ĠGard": 7425,
      "agon": 7426,
      "egen": 7427,
      "Ġsentence": 7428,
      "ĠOlymp": 7429,
      "Ġserves": 7430,
      "Ġmold": 7431,
      "Ġowners": 7432,
      "Ã¼hr": 7433,
      "Ġflight": 7434,
      "ING": 7435,
      "ÑĢÐ°ÑĤ": 7436,
      "ĊĠĠĠĠ": 7437,
      "Over": 7438,
      "Ġwants": 7439,
      "Ġslowly": 7440,
      "Ġflo": 7441,
      "ÑĳÐ½": 7442,
      "Ġproport": 7443,
      "ÙĦÛĮ": 7444,
      "ersonal": 7445,
      "ãĤ³": 7446,
      "Ġpretty": 7447,
      "Ġtells": 7448,
      "ÑİÑĤ": 7449,
      "Ġsky": 7450,
      "road": 7451,
      "Ġinnovative": 7452,
      "ĠDisease": 7453,
      "Ġeg": 7454,
      "ĠAny": 7455,
      "Ġmountain": 7456,
      "Ġcontamin": 7457,
      "eben": 7458,
      "Ġengaging": 7459,
      "Ġcompounds": 7460,
      "ĠNature": 7461,
      "Ġwave": 7462,
      "Ð¾Ñı": 7463,
      "ctic": 7464,
      "stone": 7465,
      "alse": 7466,
      "ĠÐºÐ¾Ð½": 7467,
      "lder": 7468,
      "ĠPers": 7469,
      "Ġtried": 7470,
      "lyn": 7471,
      "ĠÐ¾Ñģ": 7472,
      "Ġhus": 7473,
      "Ġclaims": 7474,
      "ION": 7475,
      "ibli": 7476,
      "ĠYear": 7477,
      "Ġmulti": 7478,
      "Ġexcl": 7479,
      "ĠPsych": 7480,
      "Ð°ÑģÑĤ": 7481,
      "ĠPo": 7482,
      "Ã¼nd": 7483,
      "Let": 7484,
      "ĠLearn": 7485,
      "rants": 7486,
      "ventions": 7487,
      "Ġwarming": 7488,
      "Referen": 7489,
      "ĠSmith": 7490,
      "DP": 7491,
      "itamin": 7492,
      "Ġwedi": 7493,
      "Ð½ÑĭÐ¼": 7494,
      "ÑĽ": 7495,
      "inate": 7496,
      "Ġperce": 7497,
      "ansion": 7498,
      "Ġcompetition": 7499,
      "Ġtrained": 7500,
      "earchers": 7501,
      "eder": 7502,
      "ĠOx": 7503,
      "Ġdiagnosed": 7504,
      "Ġreactions": 7505,
      "chain": 7506,
      "state": 7507,
      "æķ": 7508,
      "Ġjoined": 7509,
      "Ġimprovement": 7510,
      "Ġfilter": 7511,
      "Ġseeking": 7512,
      "Ġgenerations": 7513,
      "Ġbroken": 7514,
      "ĠBank": 7515,
      "Ġaccident": 7516,
      "ĠSuper": 7517,
      "nen": 7518,
      "Ð»ÐµÐ´": 7519,
      "Ġbeauty": 7520,
      "Ġtank": 7521,
      "orf": 7522,
      "ĠExp": 7523,
      "ĠÐ§": 7524,
      "ĠAst": 7525,
      "ĠFfilm": 7526,
      "Ġaircraft": 7527,
      "point": 7528,
      "Ġcomo": 7529,
      "ĠHaw": 7530,
      "ĠRet": 7531,
      "Ð°ÑĢÑĤ": 7532,
      "Ġdesigns": 7533,
      "Ġjoin": 7534,
      "Ġconfir": 7535,
      "mes": 7536,
      "Ġcos": 7537,
      "ustain": 7538,
      "Ġcloser": 7539,
      "à¸Ńà¸¡": 7540,
      "âĢĺ": 7541,
      "liament": 7542,
      "ĠTake": 7543,
      "ĠExt": 7544,
      "Ġentirely": 7545,
      "Ġweap": 7546,
      "Ġwurden": 7547,
      "ĠIII": 7548,
      "Ġmoral": 7549,
      "Ġmand": 7550,
      "igue": 7551,
      "Ġinsurance": 7552,
      "ogs": 7553,
      "ĠStreet": 7554,
      "iology": 7555,
      "Ġdeli": 7556,
      "ãĢİ": 7557,
      "Ġahead": 7558,
      "Ġannounced": 7559,
      "Ġger": 7560,
      "ãĢı": 7561,
      "Ġresponses": 7562,
      "Ġactor": 7563,
      "Ġsuc": 7564,
      "bet": 7565,
      "Ġmolecules": 7566,
      "Ġlearners": 7567,
      "Ġrom": 7568,
      "Ġimplementation": 7569,
      "ĠMer": 7570,
      "Ġpray": 7571,
      "Ġimpossible": 7572,
      "ĠColumb": 7573,
      "Ð¼Ð°": 7574,
      "ĠMel": 7575,
      "Ġyounger": 7576,
      "Ġtall": 7577,
      "Ġcorrespond": 7578,
      "Ġhero": 7579,
      "ĠÐŃ": 7580,
      "Ø§Ø¦": 7581,
      "ados": 7582,
      "Ġbond": 7583,
      "Ġabund": 7584,
      "racy": 7585,
      "Ġhouses": 7586,
      "ĠJoh": 7587,
      "©á±": 7588,
      "ĠÙħØ¬": 7589,
      "ĠJe": 7590,
      "Ġrandom": 7591,
      "ĠVirginia": 7592,
      "Ã¤s": 7593,
      "atik": 7594,
      "dr": 7595,
      "Ġgreenhouse": 7596,
      "ĠSov": 7597,
      "Ġrepair": 7598,
      "Ġdels": 7599,
      "Ġserver": 7600,
      "Your": 7601,
      "ĠCop": 7602,
      "Ġpainting": 7603,
      "ĠCy": 7604,
      "gr": 7605,
      "åĩº": 7606,
      "Ġmamm": 7607,
      "ĠHave": 7608,
      "Ġofficials": 7609,
      "Ġfewer": 7610,
      "Ð½Ñı": 7611,
      "Ġeller": 7612,
      "ĠJun": 7613,
      "Ġplayer": 7614,
      "Ġirrit": 7615,
      "ahr": 7616,
      "ãĤª": 7617,
      "Ġparticipate": 7618,
      "Ġremote": 7619,
      "Ġfocuses": 7620,
      "Ġfeeding": 7621,
      "Ġá±ł": 7622,
      "Ġgluc": 7623,
      "Ð°Ð¼Ð¸": 7624,
      "icit": 7625,
      "enden": 7626,
      "âĢĻ,": 7627,
      "See": 7628,
      "Ġourselves": 7629,
      "reland": 7630,
      "ults": 7631,
      "ĠÐ¾Ðº": 7632,
      "ĠGal": 7633,
      "à¸¶à¹Ī": 7634,
      "ĠFilm": 7635,
      "jo": 7636,
      "Ġmissing": 7637,
      "à¸ģà¸¥": 7638,
      "ĠÙĥ": 7639,
      "Ġthreats": 7640,
      "Ġloved": 7641,
      "ĠJoseph": 7642,
      "raining": 7643,
      "cript": 7644,
      "Ġsustainability": 7645,
      "hop": 7646,
      "Ġax": 7647,
      "Ìģ": 7648,
      "Ġdecade": 7649,
      "nee": 7650,
      "Ġmixed": 7651,
      "Ġconsumer": 7652,
      "Ġdelivery": 7653,
      "abulary": 7654,
      "ĠAnn": 7655,
      "ĠJews": 7656,
      "Ġincred": 7657,
      "ioxide": 7658,
      "Ġstable": 7659,
      "aland": 7660,
      "ĠMr": 7661,
      "Ġaccuracy": 7662,
      "ÐµÑĤÑģÑı": 7663,
      "Ġcapture": 7664,
      "Ġpossibly": 7665,
      "ĠBig": 7666,
      "Ġconven": 7667,
      "Ġdisrupt": 7668,
      "Ġcomfortable": 7669,
      "ctor": 7670,
      "Ġcovers": 7671,
      "ĠIndust": 7672,
      "Since": 7673,
      "Ġbrow": 7674,
      "Ġexperiments": 7675,
      "ÙħØ§ÙĦ": 7676,
      "ĠSuch": 7677,
      "Ġstroke": 7678,
      "Ġobtained": 7679,
      "Ġfav": 7680,
      "emia": 7681,
      "Ġlayers": 7682,
      "Ġelectron": 7683,
      "Ø³Ùħ": 7684,
      "ĠNations": 7685,
      "Ġoperate": 7686,
      "Ð°Ð»Ð¸": 7687,
      "Ġpure": 7688,
      "Ġreader": 7689,
      "iner": 7690,
      "bing": 7691,
      "Ġexcessive": 7692,
      "Ġdd": 7693,
      "Ġpreval": 7694,
      "Ġconventional": 7695,
      "Rec": 7696,
      "ĠØ¯Ùĩ": 7697,
      "Ġprotocol": 7698,
      "ĠMartin": 7699,
      "Ġpromoting": 7700,
      "Ġfrequent": 7701,
      "oli": 7702,
      "à¸¹à¹Ī": 7703,
      "oding": 7704,
      "Ġindex": 7705,
      "ĠØ§Ø¨": 7706,
      "Ġtex": 7707,
      "othes": 7708,
      "Ġrely": 7709,
      "ĠÑģÐ¾": 7710,
      "har": 7711,
      "icide": 7712,
      "ĠâĢ¢": 7713,
      "sm": 7714,
      "Ġunderstood": 7715,
      "Ġped": 7716,
      "Ġenpres": 7717,
      "ĠRights": 7718,
      "Ġcyn": 7719,
      "ĠCast": 7720,
      "Ġvolunte": 7721,
      "ĠStart": 7722,
      "Ġcircumstances": 7723,
      "Ġaccum": 7724,
      "Ġtransp": 7725,
      "Ġlies": 7726,
      "abil": 7727,
      "Ġholds": 7728,
      "Ġgreatly": 7729,
      "Ġmarked": 7730,
      "ãĥŀ": 7731,
      "etan": 7732,
      "ione": 7733,
      "Ġcompr": 7734,
      "itu": 7735,
      "lets": 7736,
      "Ġobesity": 7737,
      "Ġdess": 7738,
      "åł": 7739,
      "ston": 7740,
      "Ġdoor": 7741,
      "Ġfashion": 7742,
      "ican": 7743,
      "Ð»Ð°Ð²": 7744,
      "Ġarmy": 7745,
      "gel": 7746,
      "ĠdÃ¤r": 7747,
      "Ġunknown": 7748,
      "ki": 7749,
      "Ġfounded": 7750,
      "Ġbeliefs": 7751,
      "Ġjun": 7752,
      "LA": 7753,
      "owing": 7754,
      "Ġik": 7755,
      "Ġremark": 7756,
      "Ġgap": 7757,
      "rooms": 7758,
      "Ġfract": 7759,
      "ĠTit": 7760,
      "Ġlegs": 7761,
      "ping": 7762,
      "Ġadopted": 7763,
      "Ġworry": 7764,
      "Ġgun": 7765,
      "EP": 7766,
      "Ġmining": 7767,
      "Ġdass": 7768,
      "Ġrid": 7769,
      "ĠCatholic": 7770,
      "Ġtrib": 7771,
      "car": 7772,
      "iro": 7773,
      "rus": 7774,
      "ĠStadt": 7775,
      "Ġchick": 7776,
      "Ġbere": 7777,
      "ichte": 7778,
      "Ġpra": 7779,
      "ĠJud": 7780,
      "Ġreplaced": 7781,
      "ĠSaint": 7782,
      "ÐµÐ½Ð°": 7783,
      "umps": 7784,
      "Ġpron": 7785,
      "amer": 7786,
      "Ġwitness": 7787,
      "ĠAuf": 7788,
      "Ġ(-": 7789,
      "Ġprev": 7790,
      "Ġscholars": 7791,
      "Ġprison": 7792,
      "fortunately": 7793,
      "Ġerror": 7794,
      "å¼": 7795,
      "Int": 7796,
      "Ġrepeated": 7797,
      "ĠCre": 7798,
      "Ġshell": 7799,
      "ĠRock": 7800,
      "icon": 7801,
      "inde": 7802,
      "ioxid": 7803,
      "à¹Ĥà¸Ķà¸¢": 7804,
      "idity": 7805,
      "à¹Ģà¸ŀ": 7806,
      "ĠØ§Øª": 7807,
      "ctive": 7808,
      "Ġrespiratory": 7809,
      "Ġattend": 7810,
      "ivalent": 7811,
      "ĠMen": 7812,
      "iano": 7813,
      "ĠKl": 7814,
      "ĠÐ±Ñĥ": 7815,
      "ictionary": 7816,
      "ffective": 7817,
      "Ġna": 7818,
      "Ġacknow": 7819,
      "ĠrÃ©": 7820,
      "itivity": 7821,
      "Ġmechanisms": 7822,
      "Ġindicates": 7823,
      "Ġcalories": 7824,
      "Ġremaining": 7825,
      "idential": 7826,
      "Ġcoron": 7827,
      "Ġshapes": 7828,
      "á±·": 7829,
      "Ġmusical": 7830,
      "Ġmeal": 7831,
      "Ġdepart": 7832,
      "Ġhealing": 7833,
      "Ø§Ø¯Ø±": 7834,
      "ĠScott": 7835,
      "ĠThose": 7836,
      "ĠRom": 7837,
      "Ġdamaged": 7838,
      "Ġmechanism": 7839,
      "ĠStat": 7840,
      "Ġmitig": 7841,
      "ando": 7842,
      "Ġbrings": 7843,
      "Ġsurfaces": 7844,
      "ĠDu": 7845,
      "ÑĢÐ°Ð·": 7846,
      "Ġsoldiers": 7847,
      "ÙĨÙĪØ¨": 7848,
      "Ú¯Ø§ÙĨ": 7849,
      "Ġagreement": 7850,
      "roat": 7851,
      "Er": 7852,
      "Ġadministration": 7853,
      "ĠMot": 7854,
      "ĠBest": 7855,
      "Ġil": 7856,
      "à¸Ĺà¸¢": 7857,
      "Ġinte": 7858,
      "ĠLos": 7859,
      "lean": 7860,
      "Ġagencies": 7861,
      "Ã¤st": 7862,
      "Ġkidney": 7863,
      "anged": 7864,
      "Ġchosen": 7865,
      "asters": 7866,
      "Ġevaluation": 7867,
      "Ġcamera": 7868,
      "Ġscore": 7869,
      "Ġunable": 7870,
      "Ġclar": 7871,
      "atric": 7872,
      "æł": 7873,
      "Ġopinion": 7874,
      "Ġsel": 7875,
      "Ġpossibility": 7876,
      "Ġcav": 7877,
      "ĠLibrary": 7878,
      "Ġtelevision": 7879,
      "ĠPlay": 7880,
      "Ġbrand": 7881,
      "Ø¬ÙħÙĪ": 7882,
      "ĠConn": 7883,
      "friend": 7884,
      "uzz": 7885,
      "ribed": 7886,
      "ÑĥÐ·": 7887,
      "Ġbak": 7888,
      "uses": 7889,
      "Ġmarriage": 7890,
      "Ġsmoke": 7891,
      "ÐµÐ³": 7892,
      "Ġtissues": 7893,
      "Ġuniverse": 7894,
      "Ġbear": 7895,
      "éĥ¨": 7896,
      "uous": 7897,
      "Ġancest": 7898,
      "Ġhousing": 7899,
      "ĠCheck": 7900,
      "ovascular": 7901,
      "ditional": 7902,
      "Ġguarant": 7903,
      "Ġratio": 7904,
      "Ġvitamins": 7905,
      "ĠBir": 7906,
      "Ġfu": 7907,
      "Ġpool": 7908,
      "Ġmarried": 7909,
      "icago": 7910,
      "à¸ļà¸£": 7911,
      "yright": 7912,
      "ĠIreland": 7913,
      "phone": 7914,
      "Ġensures": 7915,
      "Ġcompare": 7916,
      "Ġcustomer": 7917,
      "ĠÙĩÙĪ": 7918,
      "ĠNatural": 7919,
      "Ġfunctional": 7920,
      "Ġdepos": 7921,
      "pread": 7922,
      "throp": 7923,
      "Ġdioxide": 7924,
      "Ġcyfarwyddwr": 7925,
      "æĽ": 7926,
      "Ġcritic": 7927,
      "ĠColor": 7928,
      "ĠLike": 7929,
      "body": 7930,
      "ÙĬØ³": 7931,
      "Ġti": 7932,
      "Ð¸Ð¾Ð½": 7933,
      "ading": 7934,
      "Ġinstruments": 7935,
      "Ġmagnetic": 7936,
      "uted": 7937,
      "Ġdensity": 7938,
      "Ġcentre": 7939,
      "Ġexperiencing": 7940,
      "ĠBill": 7941,
      "ningen": 7942,
      "Ġeffectiveness": 7943,
      "BS": 7944,
      "Ġlaunched": 7945,
      "Ġblocks": 7946,
      "antly": 7947,
      "ç«": 7948,
      "Ġorganized": 7949,
      "ĠÒ»": 7950,
      "ĠAdminist": 7951,
      "Ġepis": 7952,
      "Ð¾ÑĢÐ¾Ð´": 7953,
      "ahn": 7954,
      "Ġdefine": 7955,
      "ĠPet": 7956,
      "Ġfever": 7957,
      "links": 7958,
      "RC": 7959,
      "vol": 7960,
      "Ġrelief": 7961,
      ".âĢĻ": 7962,
      "otes": 7963,
      "ĠlÃ¤n": 7964,
      "ĠâĢĿ": 7965,
      "Ġheating": 7966,
      "Ġaccepted": 7967,
      "idespread": 7968,
      "Ġpartner": 7969,
      "erior": 7970,
      "ito": 7971,
      "Ġknew": 7972,
      "agraph": 7973,
      "but": 7974,
      "anz": 7975,
      "Ġrising": 7976,
      "Ġfixed": 7977,
      "ĠØ¨Ø³": 7978,
      "ship": 7979,
      "oly": 7980,
      "Ġapparent": 7981,
      "Once": 7982,
      "uzten": 7983,
      "oven": 7984,
      "Ġspending": 7985,
      "Ġarms": 7986,
      "Ġgram": 7987,
      "åĬ": 7988,
      "ĠRichard": 7989,
      "Ġbutter": 7990,
      "door": 7991,
      "Ġinstalled": 7992,
      "ĠLabor": 7993,
      "rot": 7994,
      "iability": 7995,
      "obl": 7996,
      "Ġlimits": 7997,
      "Ge": 7998,
      "Ġswim": 7999,
      "Ġdaughter": 8000,
      "ĠWhether": 8001,
      "ĠScot": 8002,
      "Ġrow": 8003,
      "erd": 8004,
      "ÑĭÐµ": 8005,
      "Ø¬ÙħÙĪØ¹Ùĩ": 8006,
      "Ġru": 8007,
      "thritis": 8008,
      "Ġpartners": 8009,
      "ãĥĲ": 8010,
      "comp": 8011,
      "liga": 8012,
      "Ġbridge": 8013,
      "inson": 8014,
      "rene": 8015,
      "ĠÃĸ": 8016,
      "Ġreserv": 8017,
      "Ġschedule": 8018,
      "Ġzero": 8019,
      "Ġfacing": 8020,
      "Ø±ÛĮ": 8021,
      "ighter": 8022,
      "Ġvideos": 8023,
      "Ġsight": 8024,
      "Â»,": 8025,
      "Ġfarming": 8026,
      "Ð¸Ð½Ðµ": 8027,
      "ĠAngel": 8028,
      "ÛĮÙĦØ§Ø¯ÛĮ": 8029,
      "ĠStock": 8030,
      "Ġarts": 8031,
      "yroid": 8032,
      "aped": 8033,
      "Ġauthorities": 8034,
      "Ġcup": 8035,
      "Lear": 8036,
      "Ġtut": 8037,
      "itudes": 8038,
      "ĠÐ¨": 8039,
      "Ġconsidering": 8040,
      "Ġsail": 8041,
      "Ġà¹ģ": 8042,
      "Ġlisten": 8043,
      "Ġnearby": 8044,
      "Ġconstantly": 8045,
      "talet": 8046,
      "æĶ": 8047,
      "Ġmeters": 8048,
      "Ġexamine": 8049,
      "Ġturns": 8050,
      "earing": 8051,
      "Ġindependence": 8052,
      "Ġbath": 8053,
      "Ġstability": 8054,
      "luding": 8055,
      "Ġinstitution": 8056,
      "ĠÐ´Ð¾": 8057,
      "Ġstanding": 8058,
      "Ġcontinuous": 8059,
      "Ġá±¨": 8060,
      "pet": 8061,
      "Ġtheme": 8062,
      "Ġelection": 8063,
      "hered": 8064,
      "ĠDistrict": 8065,
      "Ġrepresented": 8066,
      "Ġenables": 8067,
      "Ġ(+": 8068,
      "ĠWood": 8069,
      "Ġcards": 8070,
      "Ġsupplies": 8071,
      "atty": 8072,
      "Ġblo": 8073,
      "à¸Ħà¸§": 8074,
      "ounter": 8075,
      "Ã¡n": 8076,
      "Ġmechanical": 8077,
      "Ġ?": 8078,
      "ĠAP": 8079,
      "igan": 8080,
      "Ġpanels": 8081,
      "iration": 8082,
      "Ġunus": 8083,
      "ĠOcean": 8084,
      "Ġmes": 8085,
      "health": 8086,
      "ady": 8087,
      "Ġabilities": 8088,
      "Ð°Ð±": 8089,
      "First": 8090,
      "Ġ%.": 8091,
      "otal": 8092,
      "acu": 8093,
      "Ġputting": 8094,
      "ĠBab": 8095,
      "Ġdetection": 8096,
      "ĠsÃ¥": 8097,
      "Ġmos": 8098,
      "ether": 8099,
      "ØŃØµ": 8100,
      "ĠLo": 8101,
      "Ġcrime": 8102,
      "ĠAdv": 8103,
      "Ġconversation": 8104,
      "Ġnervous": 8105,
      "ç·": 8106,
      "ãĥī": 8107,
      "utch": 8108,
      "ä¼ļ": 8109,
      "ÙħØ¹": 8110,
      "Ġintellect": 8111,
      "Ġpod": 8112,
      "inity": 8113,
      "ĠEarly": 8114,
      "Ġadministr": 8115,
      "inen": 8116,
      "Ġelectro": 8117,
      "ãģ£ãģ¦": 8118,
      "airy": 8119,
      "Ġorgans": 8120,
      "Ġyield": 8121,
      "Ġopposite": 8122,
      "Ġà¸Ĺ": 8123,
      "Ġbabies": 8124,
      "Ġoutbre": 8125,
      "Ġplenty": 8126,
      "ommon": 8127,
      "ÑģÐºÐ¾Ð¼": 8128,
      "ĠSign": 8129,
      "Ġnine": 8130,
      "Ġnd": 8131,
      "Ġlaboratory": 8132,
      "inf": 8133,
      "Ġtract": 8134,
      "Ġforget": 8135,
      "Ġsunlight": 8136,
      "Ġcooking": 8137,
      "Ġneighbor": 8138,
      "Ġdemonstrate": 8139,
      "urrent": 8140,
      "roduction": 8141,
      "Ð¶Ð´": 8142,
      "Ġtrends": 8143,
      "Ġevaluate": 8144,
      "pper": 8145,
      "Ġathlet": 8146,
      "Ġscene": 8147,
      "BT": 8148,
      "quest": 8149,
      "Ġcomparison": 8150,
      "Ġffilmiau": 8151,
      "Ġtele": 8152,
      "ideo": 8153,
      "Ġsheet": 8154,
      "Ġlect": 8155,
      "à¤°": 8156,
      "Ġmanip": 8157,
      "ÓĻÑĤ": 8158,
      "ãģĳ": 8159,
      "ĠÙĦÙĬ": 8160,
      "ĠClimate": 8161,
      "Ġdys": 8162,
      "Ġderived": 8163,
      "Ġtot": 8164,
      "Qu": 8165,
      "ĠFederal": 8166,
      "Ġlung": 8167,
      "ĠØ¬ÙĨÙĪØ¨": 8168,
      "ĠTop": 8169,
      "Ð½Ð¾Ð²": 8170,
      "Ã¸r": 8171,
      "ĠOffice": 8172,
      "ĠØ§ÙĦØ£": 8173,
      "Ġtrigger": 8174,
      "Ġinsulin": 8175,
      "Ġchief": 8176,
      "ĠCreat": 8177,
      "ĠSouthern": 8178,
      "Ġpharm": 8179,
      "Ġrig": 8180,
      "osion": 8181,
      "Ġconsume": 8182,
      "Ġprinting": 8183,
      "ifts": 8184,
      "Ġwidespread": 8185,
      "venska": 8186,
      "IL": 8187,
      "uration": 8188,
      "ĠCarolina": 8189,
      "Ġwish": 8190,
      "ĠÙħÙħ": 8191,
      "print": 8192,
      "quality": 8193,
      "Gen": 8194,
      "Ġends": 8195,
      "zer": 8196,
      "Ġprovider": 8197,
      "ĠCa": 8198,
      "Ġmarkets": 8199,
      "itting": 8200,
      "bed": 8201,
      "Ġbread": 8202,
      "iens": 8203,
      "ohyd": 8204,
      "HD": 8205,
      "ĠParty": 8206,
      "Ġviruses": 8207,
      "venue": 8208,
      "Ġdepartment": 8209,
      "Ġdebate": 8210,
      "ĠÐ¿ÑĢÐµ": 8211,
      "ĠTre": 8212,
      "Ġzone": 8213,
      "Ġassociation": 8214,
      "ä½ľ": 8215,
      "rog": 8216,
      "ĠNorthern": 8217,
      "hÃ¶r": 8218,
      "Ġunless": 8219,
      "Ġhoriz": 8220,
      "Ġcomplications": 8221,
      "Ġfulf": 8222,
      "Ġclothing": 8223,
      "nel": 8224,
      "ĠOper": 8225,
      "wo": 8226,
      "Ø¯Ùħ": 8227,
      "cons": 8228,
      "ĠItaly": 8229,
      "Ã¼d": 8230,
      "icing": 8231,
      "Ġalter": 8232,
      "orses": 8233,
      "Ġnan": 8234,
      "ÑĭÑħ": 8235,
      "ĠLib": 8236,
      "Ġpossess": 8237,
      "èĢ": 8238,
      "Ġcopy": 8239,
      "Ġturning": 8240,
      "Ġ(*": 8241,
      "Ġdivision": 8242,
      "fish": 8243,
      "Ġphilosophy": 8244,
      "Ġentre": 8245,
      "ĠPenn": 8246,
      "Ġinn": 8247,
      "ĠCentre": 8248,
      "æ¥": 8249,
      "Ġmyster": 8250,
      "Ġhung": 8251,
      "Ġbalanced": 8252,
      "Ear": 8253,
      "Ġmanif": 8254,
      "Ġmeals": 8255,
      "Ġdecor": 8256,
      "Ġvoltage": 8257,
      "Ġfavorite": 8258,
      "éĽ": 8259,
      "Ġentry": 8260,
      "ĠØ§ÛĮÙĨ": 8261,
      "Ġsensors": 8262,
      "æ°": 8263,
      "ĠBusiness": 8264,
      "ÐºÐµ": 8265,
      "ĠTHE": 8266,
      "etime": 8267,
      "lÃ¤": 8268,
      "Ġphotograph": 8269,
      "heimer": 8270,
      "ĠOnly": 8271,
      "ellen": 8272,
      "ĠSoviet": 8273,
      "ĠRome": 8274,
      "Ġdesire": 8275,
      "ĠÙħØ¬ÙħÙĪØ¹Ùĩ": 8276,
      "Ġdebt": 8277,
      "inction": 8278,
      "Ġemployment": 8279,
      "Step": 8280,
      "ĠØ±Ø§": 8281,
      "External": 8282,
      "ĠÐ¾ÑĢ": 8283,
      "ãģĿ": 8284,
      "Ġwis": 8285,
      "irk": 8286,
      "Ġanalyze": 8287,
      "Ġnose": 8288,
      "Ã¶l": 8289,
      "oken": 8290,
      "ĠØªÙĤ": 8291,
      "Ġnewsp": 8292,
      "Ġethical": 8293,
      "ãģĬ": 8294,
      "ĠDar": 8295,
      "Ø¨Ø§Ø²": 8296,
      "Ġrecommendations": 8297,
      "ĠCho": 8298,
      "ØŃÙħØ±": 8299,
      "Ġexplo": 8300,
      "ĠØ¬Ø²": 8301,
      "Ġintegrated": 8302,
      "ĠFace": 8303,
      "ĠZealand": 8304,
      "ÙĦÙĪÙħ": 8305,
      "Ġorient": 8306,
      "ĠØ´ÙħØ§ÙĦ": 8307,
      "terna": 8308,
      "Ġpush": 8309,
      "Ġpercentage": 8310,
      "ĠØ§ÙĦØ£ØŃÙħØ±": 8311,
      "ĠÙħØª": 8312,
      "Ð°Ð½Ð°": 8313,
      "ĠÙĥØ§ÙĨ": 8314,
      "Ġobjective": 8315,
      "Ġinhab": 8316,
      "ĠBefore": 8317,
      "Ġgrew": 8318,
      "egr": 8319,
      "Ġdescription": 8320,
      "andon": 8321,
      "ÑĢÐ¸Ð¼": 8322,
      "Ġcolleagues": 8323,
      "Med": 8324,
      "Ð´ÓĻ": 8325,
      "Ġplatforms": 8326,
      "Ġok": 8327,
      "ĠÙĤ": 8328,
      "Ġorganisms": 8329,
      "Ġib": 8330,
      "avirus": 8331,
      "Ġserving": 8332,
      "à¸§à¸ĩ": 8333,
      "Ġnest": 8334,
      "ĠÙĬ": 8335,
      "Ã©t": 8336,
      "Ġlistening": 8337,
      "Ġglucose": 8338,
      "ĠØ·ÙĪÙĦ": 8339,
      "Ġfunds": 8340,
      "cap": 8341,
      "ĠPlant": 8342,
      "Ġpersons": 8343,
      "ĠYet": 8344,
      "Ġpoison": 8345,
      "ĠRevolution": 8346,
      "Ġidentifying": 8347,
      "itet": 8348,
      "ÙħØ±ÛĮÚ©": 8349,
      "lass": 8350,
      "Ġdynamic": 8351,
      "Ġham": 8352,
      "Ġimplications": 8353,
      "Ġdeploy": 8354,
      "ymph": 8355,
      "Ġethnic": 8356,
      "ĠEmpire": 8357,
      "ediatric": 8358,
      "ĠBa": 8359,
      "ĠValley": 8360,
      "Ġaddiction": 8361,
      "ĠCommit": 8362,
      "ÙĪØ¬Ùĩ": 8363,
      "ulpt": 8364,
      "ÐµÑħ": 8365,
      "itative": 8366,
      "ĠTom": 8367,
      "ØŃØ¯": 8368,
      "ĠLiter": 8369,
      "Ġproductivity": 8370,
      "idad": 8371,
      "prof": 8372,
      "ÐºÐ¾": 8373,
      "Ġnecessarily": 8374,
      "Ġadequate": 8375,
      "ĠLanguage": 8376,
      "best": 8377,
      "ĠFort": 8378,
      "Ġproven": 8379,
      "Ġpresentation": 8380,
      "Ġcrypt": 8381,
      "Ġprincipal": 8382,
      "ĠBrazil": 8383,
      "utrition": 8384,
      "Ġinvolving": 8385,
      "Ġembra": 8386,
      "Ġinfluenced": 8387,
      "Ġdelay": 8388,
      "Ø³Ø§ÙĦ": 8389,
      "ocracy": 8390,
      "arna": 8391,
      "à¸§à¸¢": 8392,
      "uh": 8393,
      "Ġrecycling": 8394,
      "Ġmuseum": 8395,
      "Ġhonor": 8396,
      "Ġfaced": 8397,
      "ÑĢÑĥÐ³": 8398,
      "Ġprotecting": 8399,
      "Ġpartnership": 8400,
      "ãĥ¡": 8401,
      "ĠSwed": 8402,
      "Ġmetabol": 8403,
      "ĠIns": 8404,
      "ĠHam": 8405,
      "anger": 8406,
      "Art": 8407,
      "Ð¤": 8408,
      "Ġruns": 8409,
      "ĠÑģÐ¾ÑģÑĤÐ°Ð²": 8410,
      "Ġcategories": 8411,
      "Ġcommitment": 8412,
      "elihood": 8413,
      "Ġhormone": 8414,
      "Ġpreparation": 8415,
      "ãĥĹ": 8416,
      "Ġwie": 8417,
      "Ð¸ÐºÐ°": 8418,
      "iche": 8419,
      "Ġattached": 8420,
      "Ġcombat": 8421,
      "iones": 8422,
      "awa": 8423,
      "ĠKingdom": 8424,
      "Ġcapabilities": 8425,
      "Ġtreating": 8426,
      "Ġrank": 8427,
      "Ġinteractive": 8428,
      "aya": 8429,
      "Ġhur": 8430,
      "ĠUnderstanding": 8431,
      "ĠMusic": 8432,
      "rix": 8433,
      "Ġvisitors": 8434,
      "ĠWal": 8435,
      "erman": 8436,
      "Ġlights": 8437,
      "Ġwasn": 8438,
      "Ġdos": 8439,
      "Ġassets": 8440,
      "arten": 8441,
      "ĠConst": 8442,
      "à¸²à¸«": 8443,
      "ÐµÑĤÐ°": 8444,
      "ega": 8445,
      "rovers": 8446,
      "fulness": 8447,
      "Ġepid": 8448,
      "ĠRh": 8449,
      "ĠÃ¶ver": 8450,
      "rowing": 8451,
      "ĠEth": 8452,
      "Ġborder": 8453,
      "ĠDoes": 8454,
      "stract": 8455,
      "Ġrice": 8456,
      "ĠColl": 8457,
      "Ã¶g": 8458,
      "Ġpair": 8459,
      "ĠSpain": 8460,
      "Ġproviders": 8461,
      "ĠUt": 8462,
      "Ġmyth": 8463,
      "Ġcreativity": 8464,
      "ulty": 8465,
      "lings": 8466,
      "ĠStudy": 8467,
      "Ġrh": 8468,
      "à¸²à¸ķ": 8469,
      "aming": 8470,
      "IM": 8471,
      "ĠItalian": 8472,
      "ĠØ¢ÙħØ±ÛĮÚ©": 8473,
      "ĠMinister": 8474,
      "Ġoverw": 8475,
      "ĠSciences": 8476,
      "ented": 8477,
      "Ø³Ø§Ø¨": 8478,
      "ç§": 8479,
      "scale": 8480,
      "Ġtrials": 8481,
      "à¸§à¸Ļ": 8482,
      "My": 8483,
      "ques": 8484,
      "Ġbatteries": 8485,
      "Ġfurn": 8486,
      "Ġlig": 8487,
      "Ġfinished": 8488,
[...]
